#include "magic_wand_model_data.h"

// We need to keep the data array aligned on some architectures.
#ifdef __has_attribute
#define HAVE_ATTRIBUTE(x) __has_attribute(x)
#else
#define HAVE_ATTRIBUTE(x) 0
#endif
#if HAVE_ATTRIBUTE(aligned) || (defined(__GNUC__) && !defined(__clang__))
#define DATA_ALIGN_ATTRIBUTE __attribute__((aligned(4)))
#else
#define DATA_ALIGN_ATTRIBUTE
#endif

const unsigned char g_magic_wand_model_data[] DATA_ALIGN_ATTRIBUTE = {
  // Paste the data of the char array in `src/model.cc` here
  0x08, 0x00, 0x00, 0x00, 0x54, 0x46, 0x4c, 0x33, 0x62, 0xff, 0xff, 0xff,
  0x03, 0x00, 0x00, 0x00, 0x10, 0x00, 0x00, 0x00, 0x24, 0x00, 0x00, 0x00,
  0x78, 0x00, 0x00, 0x00, 0x24, 0x00, 0x00, 0x00, 0x05, 0x00, 0x00, 0x00,
  0x78, 0x05, 0x00, 0x00, 0xb0, 0x04, 0x00, 0x00, 0xe0, 0x02, 0x00, 0x00,
  0x60, 0x02, 0x00, 0x00, 0x54, 0x01, 0x00, 0x00, 0x01, 0x00, 0x00, 0x00,
  0x78, 0x00, 0x00, 0x00, 0x13, 0x00, 0x00, 0x00, 0x74, 0x2d, 0x00, 0x00,
  0x70, 0x2d, 0x00, 0x00, 0x7c, 0x2c, 0x00, 0x00, 0x08, 0x2c, 0x00, 0x00,
  0x9c, 0x2b, 0x00, 0x00, 0x4c, 0x0f, 0x00, 0x00, 0x38, 0x0e, 0x00, 0x00,
  0xbc, 0x0c, 0x00, 0x00, 0x60, 0x06, 0x00, 0x00, 0xfc, 0x05, 0x00, 0x00,
  0x78, 0x05, 0x00, 0x00, 0x48, 0x2d, 0x00, 0x00, 0x44, 0x2d, 0x00, 0x00,
  0x40, 0x2d, 0x00, 0x00, 0x3c, 0x2d, 0x00, 0x00, 0x38, 0x2d, 0x00, 0x00,
  0x34, 0x2d, 0x00, 0x00, 0x30, 0x2d, 0x00, 0x00, 0x2c, 0x2d, 0x00, 0x00,
  0x0f, 0x00, 0x00, 0x00, 0x4d, 0x4c, 0x49, 0x52, 0x20, 0x43, 0x6f, 0x6e,
  0x76, 0x65, 0x72, 0x74, 0x65, 0x64, 0x2e, 0x00, 0x00, 0x00, 0x0e, 0x00,
  0x18, 0x00, 0x04, 0x00, 0x08, 0x00, 0x0c, 0x00, 0x10, 0x00, 0x14, 0x00,
  0x0e, 0x00, 0x00, 0x00, 0x14, 0x00, 0x00, 0x00, 0x5c, 0x00, 0x00, 0x00,
  0x60, 0x00, 0x00, 0x00, 0x64, 0x00, 0x00, 0x00, 0x84, 0x00, 0x00, 0x00,
  0x12, 0x00, 0x00, 0x00, 0xa4, 0x2c, 0x00, 0x00, 0x40, 0x2c, 0x00, 0x00,
  0x98, 0x2b, 0x00, 0x00, 0x38, 0x2b, 0x00, 0x00, 0xd0, 0x2a, 0x00, 0x00,
  0x7c, 0x0e, 0x00, 0x00, 0x60, 0x0d, 0x00, 0x00, 0xe4, 0x0b, 0x00, 0x00,
  0xa0, 0x05, 0x00, 0x00, 0x3c, 0x05, 0x00, 0x00, 0xb0, 0x04, 0x00, 0x00,
  0xe8, 0x03, 0x00, 0x00, 0x38, 0x03, 0x00, 0x00, 0xa4, 0x02, 0x00, 0x00,
  0x10, 0x02, 0x00, 0x00, 0x90, 0x01, 0x00, 0x00, 0xfc, 0x00, 0x00, 0x00,
  0x80, 0x00, 0x00, 0x00, 0x01, 0x00, 0x00, 0x00, 0x00, 0x00, 0x00, 0x00,
  0x01, 0x00, 0x00, 0x00, 0x11, 0x00, 0x00, 0x00, 0x08, 0x00, 0x00, 0x00,
  0x1c, 0x04, 0x00, 0x00, 0x58, 0x03, 0x00, 0x00, 0xc8, 0x02, 0x00, 0x00,
  0x24, 0x02, 0x00, 0x00, 0xac, 0x01, 0x00, 0x00, 0x10, 0x01, 0x00, 0x00,
  0x94, 0x00, 0x00, 0x00, 0x10, 0x00, 0x00, 0x00, 0x04, 0x00, 0x00, 0x00,
  0x6d, 0x61, 0x69, 0x6e, 0x00, 0x00, 0x00, 0x00, 0x8e, 0xff, 0xff, 0xff,
  0x00, 0x00, 0x00, 0x09, 0x04, 0x00, 0x00, 0x00, 0x1c, 0x00, 0x00, 0x00,
  0x10, 0x00, 0x00, 0x00, 0x04, 0x00, 0x00, 0x00, 0xae, 0xd4, 0xff, 0xff,
  0x00, 0x00, 0x80, 0x3f, 0x01, 0x00, 0x00, 0x00, 0x11, 0x00, 0x00, 0x00,
  0x01, 0x00, 0x00, 0x00, 0x10, 0x00, 0x00, 0x00, 0xf6, 0xfb, 0xff, 0xff,
  0x00, 0x00, 0x00, 0x19, 0x01, 0x00, 0x00, 0x00, 0x2e, 0xd4, 0xff, 0xff,
  0x10, 0x00, 0x00, 0x00, 0x12, 0x00, 0x00, 0x00, 0x14, 0x00, 0x00, 0x00,
  0x20, 0x00, 0x00, 0x00, 0x02, 0x00, 0x00, 0x00, 0x01, 0x00, 0x00, 0x00,
  0x03, 0x00, 0x00, 0x00, 0x08, 0x00, 0x00, 0x00, 0x49, 0x64, 0x65, 0x6e,
  0x74, 0x69, 0x74, 0x79, 0x00, 0x00, 0x00, 0x00, 0x68, 0xd4, 0xff, 0xff,
  0x00, 0x00, 0x0e, 0x00, 0x18, 0x00, 0x08, 0x00, 0x0c, 0x00, 0x10, 0x00,
  0x07, 0x00, 0x14, 0x00, 0x0e, 0x00, 0x00, 0x00, 0x00, 0x00, 0x00, 0x08,
  0x03, 0x00, 0x00, 0x00, 0x18, 0x00, 0x00, 0x00, 0x0c, 0x00, 0x00, 0x00,
  0x04, 0x00, 0x00, 0x00, 0x3c, 0xd4, 0xff, 0xff, 0x01, 0x00, 0x00, 0x00,
  0x10, 0x00, 0x00, 0x00, 0x03, 0x00, 0x00, 0x00, 0x0f, 0x00, 0x00, 0x00,
  0x05, 0x00, 0x00, 0x00, 0x02, 0x00, 0x00, 0x00, 0xa6, 0xd4, 0xff, 0xff,
  0x10, 0x00, 0x00, 0x00, 0x11, 0x00, 0x00, 0x00, 0x14, 0x00, 0x00, 0x00,
  0x30, 0x00, 0x00, 0x00, 0x02, 0x00, 0x00, 0x00, 0x01, 0x00, 0x00, 0x00,
  0x03, 0x00, 0x00, 0x00, 0x1a, 0x00, 0x00, 0x00, 0x73, 0x65, 0x71, 0x75,
  0x65, 0x6e, 0x74, 0x69, 0x61, 0x6c, 0x2f, 0x64, 0x65, 0x6e, 0x73, 0x65,
  0x5f, 0x31, 0x2f, 0x42, 0x69, 0x61, 0x73, 0x41, 0x64, 0x64, 0x00, 0x00,
  0x98, 0xd4, 0xff, 0xff, 0xd6, 0xfd, 0xff, 0xff, 0x00, 0x00, 0x00, 0x08,
  0x03, 0x00, 0x00, 0x00, 0x24, 0x00, 0x00, 0x00, 0x18, 0x00, 0x00, 0x00,
  0x0c, 0x00, 0x00, 0x00, 0x00, 0x00, 0x06, 0x00, 0x08, 0x00, 0x07, 0x00,
  0x06, 0x00, 0x00, 0x00, 0x00, 0x00, 0x00, 0x01, 0x01, 0x00, 0x00, 0x00,
  0x0f, 0x00, 0x00, 0x00, 0x03, 0x00, 0x00, 0x00, 0x0e, 0x00, 0x00, 0x00,
  0x04, 0x00, 0x00, 0x00, 0x01, 0x00, 0x00, 0x00, 0xfe, 0xfc, 0xff, 0xff,
  0x00, 0x00, 0x00, 0x09, 0x01, 0x00, 0x00, 0x00, 0x36, 0xd5, 0xff, 0xff,
  0x10, 0x00, 0x00, 0x00, 0x10, 0x00, 0x00, 0x00, 0x14, 0x00, 0x00, 0x00,
  0x2c, 0x00, 0x00, 0x00, 0x02, 0x00, 0x00, 0x00, 0x01, 0x00, 0x00, 0x00,
  0x10, 0x00, 0x00, 0x00, 0x15, 0x00, 0x00, 0x00, 0x73, 0x65, 0x71, 0x75,
  0x65, 0x6e, 0x74, 0x69, 0x61, 0x6c, 0x2f, 0x64, 0x65, 0x6e, 0x73, 0x65,
  0x2f, 0x52, 0x65, 0x6c, 0x75, 0x00, 0x00, 0x00, 0x7c, 0xd5, 0xff, 0xff,
  0x00, 0x00, 0x0a, 0x00, 0x10, 0x00, 0x04, 0x00, 0x08, 0x00, 0x0c, 0x00,
  0x0a, 0x00, 0x00, 0x00, 0x02, 0x00, 0x00, 0x00, 0x10, 0x00, 0x00, 0x00,
  0x04, 0x00, 0x00, 0x00, 0x01, 0x00, 0x00, 0x00, 0x0e, 0x00, 0x00, 0x00,
  0x02, 0x00, 0x00, 0x00, 0x0d, 0x00, 0x00, 0x00, 0x03, 0x00, 0x00, 0x00,
  0x7a, 0xfd, 0xff, 0xff, 0x00, 0x00, 0x00, 0x16, 0x01, 0x00, 0x00, 0x00,
  0xb2, 0xd5, 0xff, 0xff, 0x10, 0x00, 0x00, 0x00, 0x0f, 0x00, 0x00, 0x00,
  0x14, 0x00, 0x00, 0x00, 0x30, 0x00, 0x00, 0x00, 0x02, 0x00, 0x00, 0x00,
  0x01, 0x00, 0x00, 0x00, 0x70, 0x00, 0x00, 0x00, 0x1a, 0x00, 0x00, 0x00,
  0x73, 0x65, 0x71, 0x75, 0x65, 0x6e, 0x74, 0x69, 0x61, 0x6c, 0x2f, 0x66,
  0x6c, 0x61, 0x74, 0x74, 0x65, 0x6e, 0x2f, 0x52, 0x65, 0x73, 0x68, 0x61,
  0x70, 0x65, 0x00, 0x00, 0xa4, 0xd5, 0xff, 0xff, 0xe2, 0xfe, 0xff, 0xff,
  0x00, 0x00, 0x00, 0x05, 0x01, 0x00, 0x00, 0x00, 0x38, 0x00, 0x00, 0x00,
  0x2c, 0x00, 0x00, 0x00, 0x14, 0x00, 0x00, 0x00, 0x00, 0x00, 0x0e, 0x00,
  0x14, 0x00, 0x00, 0x00, 0x10, 0x00, 0x0c, 0x00, 0x08, 0x00, 0x04, 0x00,
  0x0e, 0x00, 0x00, 0x00, 0x03, 0x00, 0x00, 0x00, 0x01, 0x00, 0x00, 0x00,
  0x03, 0x00, 0x00, 0x00, 0x01, 0x00, 0x00, 0x00, 0x01, 0x00, 0x00, 0x00,
  0x0d, 0x00, 0x00, 0x00, 0x01, 0x00, 0x00, 0x00, 0x0c, 0x00, 0x00, 0x00,
  0x42, 0xd6, 0xff, 0xff, 0x10, 0x00, 0x00, 0x00, 0x0e, 0x00, 0x00, 0x00,
  0x1c, 0x00, 0x00, 0x00, 0x40, 0x00, 0x00, 0x00, 0x04, 0x00, 0x00, 0x00,
  0x01, 0x00, 0x00, 0x00, 0x07, 0x00, 0x00, 0x00, 0x01, 0x00, 0x00, 0x00,
  0x10, 0x00, 0x00, 0x00, 0x22, 0x00, 0x00, 0x00, 0x73, 0x65, 0x71, 0x75,
  0x65, 0x6e, 0x74, 0x69, 0x61, 0x6c, 0x2f, 0x6d, 0x61, 0x78, 0x5f, 0x70,
  0x6f, 0x6f, 0x6c, 0x69, 0x6e, 0x67, 0x32, 0x64, 0x5f, 0x31, 0x2f, 0x4d,
  0x61, 0x78, 0x50, 0x6f, 0x6f, 0x6c, 0x00, 0x00, 0x44, 0xd6, 0xff, 0xff,
  0xc2, 0xfe, 0xff, 0xff, 0x00, 0x00, 0x00, 0x01, 0x24, 0x00, 0x00, 0x00,
  0x18, 0x00, 0x00, 0x00, 0x04, 0x00, 0x00, 0x00, 0xb4, 0xfe, 0xff, 0xff,
  0x01, 0x00, 0x00, 0x00, 0x01, 0x00, 0x00, 0x00, 0x00, 0x00, 0x00, 0x01,
  0x01, 0x00, 0x00, 0x00, 0x0c, 0x00, 0x00, 0x00, 0x03, 0x00, 0x00, 0x00,
  0x0b, 0x00, 0x00, 0x00, 0x07, 0x00, 0x00, 0x00, 0x09, 0x00, 0x00, 0x00,
  0xd2, 0xd6, 0xff, 0xff, 0x10, 0x00, 0x00, 0x00, 0x0d, 0x00, 0x00, 0x00,
  0x1c, 0x00, 0x00, 0x00, 0x2c, 0x00, 0x00, 0x00, 0x04, 0x00, 0x00, 0x00,
  0x01, 0x00, 0x00, 0x00, 0x15, 0x00, 0x00, 0x00, 0x01, 0x00, 0x00, 0x00,
  0x10, 0x00, 0x00, 0x00, 0x0c, 0x00, 0x00, 0x00, 0x74, 0x66, 0x6c, 0x2e,
  0x63, 0x6f, 0x6e, 0x76, 0x5f, 0x32, 0x64, 0x31, 0x00, 0x00, 0x00, 0x00,
  0x18, 0xd7, 0xff, 0xff, 0x00, 0x00, 0x0e, 0x00, 0x1a, 0x00, 0x08, 0x00,
  0x0c, 0x00, 0x10, 0x00, 0x07, 0x00, 0x14, 0x00, 0x0e, 0x00, 0x00, 0x00,
  0x00, 0x00, 0x00, 0x05, 0x01, 0x00, 0x00, 0x00, 0x3c, 0x00, 0x00, 0x00,
  0x30, 0x00, 0x00, 0x00, 0x14, 0x00, 0x00, 0x00, 0x00, 0x00, 0x0e, 0x00,
  0x18, 0x00, 0x17, 0x00, 0x10, 0x00, 0x0c, 0x00, 0x08, 0x00, 0x04, 0x00,
  0x0e, 0x00, 0x00, 0x00, 0x03, 0x00, 0x00, 0x00, 0x03, 0x00, 0x00, 0x00,
  0x03, 0x00, 0x00, 0x00, 0x03, 0x00, 0x00, 0x00, 0x00, 0x00, 0x00, 0x01,
  0x01, 0x00, 0x00, 0x00, 0x0b, 0x00, 0x00, 0x00, 0x01, 0x00, 0x00, 0x00,
  0x0a, 0x00, 0x00, 0x00, 0x46, 0xff, 0xff, 0xff, 0x00, 0x00, 0x00, 0x11,
  0x01, 0x00, 0x00, 0x00, 0x7e, 0xd7, 0xff, 0xff, 0x10, 0x00, 0x00, 0x00,
  0x0c, 0x00, 0x00, 0x00, 0x1c, 0x00, 0x00, 0x00, 0x40, 0x00, 0x00, 0x00,
  0x04, 0x00, 0x00, 0x00, 0x01, 0x00, 0x00, 0x00, 0x15, 0x00, 0x00, 0x00,
  0x01, 0x00, 0x00, 0x00, 0x08, 0x00, 0x00, 0x00, 0x20, 0x00, 0x00, 0x00,
  0x73, 0x65, 0x71, 0x75, 0x65, 0x6e, 0x74, 0x69, 0x61, 0x6c, 0x2f, 0x6d,
  0x61, 0x78, 0x5f, 0x70, 0x6f, 0x6f, 0x6c, 0x69, 0x6e, 0x67, 0x32, 0x64,
  0x2f, 0x4d, 0x61, 0x78, 0x50, 0x6f, 0x6f, 0x6c, 0x00, 0x00, 0x00, 0x00,
  0xd8, 0xd7, 0xff, 0xff, 0x00, 0x00, 0x0e, 0x00, 0x14, 0x00, 0x00, 0x00,
  0x08, 0x00, 0x0c, 0x00, 0x07, 0x00, 0x10, 0x00, 0x0e, 0x00, 0x00, 0x00,
  0x00, 0x00, 0x00, 0x01, 0x30, 0x00, 0x00, 0x00, 0x24, 0x00, 0x00, 0x00,
  0x10, 0x00, 0x00, 0x00, 0x0c, 0x00, 0x10, 0x00, 0x00, 0x00, 0x04, 0x00,
  0x08, 0x00, 0x0f, 0x00, 0x0c, 0x00, 0x00, 0x00, 0x01, 0x00, 0x00, 0x00,
  0x01, 0x00, 0x00, 0x00, 0x00, 0x00, 0x00, 0x01, 0x01, 0x00, 0x00, 0x00,
  0x0a, 0x00, 0x00, 0x00, 0x03, 0x00, 0x00, 0x00, 0x00, 0x00, 0x00, 0x00,
  0x06, 0x00, 0x00, 0x00, 0x08, 0x00, 0x00, 0x00, 0x00, 0x00, 0x0a, 0x00,
  0x0c, 0x00, 0x07, 0x00, 0x00, 0x00, 0x08, 0x00, 0x0a, 0x00, 0x00, 0x00,
  0x00, 0x00, 0x00, 0x03, 0x01, 0x00, 0x00, 0x00, 0x42, 0xd8, 0xff, 0xff,
  0x10, 0x00, 0x00, 0x00, 0x0b, 0x00, 0x00, 0x00, 0x1c, 0x00, 0x00, 0x00,
  0x28, 0x00, 0x00, 0x00, 0x04, 0x00, 0x00, 0x00, 0x01, 0x00, 0x00, 0x00,
  0x40, 0x00, 0x00, 0x00, 0x03, 0x00, 0x00, 0x00, 0x08, 0x00, 0x00, 0x00,
  0x0b, 0x00, 0x00, 0x00, 0x74, 0x66, 0x6c, 0x2e, 0x63, 0x6f, 0x6e, 0x76,
  0x5f, 0x32, 0x64, 0x00, 0x2c, 0xd8, 0xff, 0xff, 0x22, 0xd9, 0xff, 0xff,
  0x04, 0x00, 0x00, 0x00, 0x40, 0x00, 0x00, 0x00, 0x77, 0xab, 0xf4, 0x3e,
  0xf2, 0x83, 0xbf, 0xbd, 0xe6, 0xba, 0x17, 0x3f, 0xc8, 0x9e, 0x3b, 0xbe,
  0x4e, 0x44, 0x54, 0x3f, 0x0c, 0x96, 0x71, 0xbd, 0x43, 0xf6, 0x11, 0xbe,
  0x3e, 0xe2, 0x53, 0x3f, 0x8e, 0x78, 0x73, 0xbe, 0x33, 0x2a, 0x41, 0xbe,
  0x7a, 0x82, 0x92, 0xbe, 0xac, 0x7f, 0x60, 0xbe, 0x82, 0x1c, 0xc7, 0x3d,
  0x41, 0x61, 0xd8, 0xbe, 0x0c, 0x9e, 0x49, 0x3f, 0x4f, 0x8e, 0x31, 0xbe,
  0xca, 0xd8, 0xff, 0xff, 0x10, 0x00, 0x00, 0x00, 0x0a, 0x00, 0x00, 0x00,
  0x10, 0x00, 0x00, 0x00, 0x20, 0x00, 0x00, 0x00, 0x01, 0x00, 0x00, 0x00,
  0x10, 0x00, 0x00, 0x00, 0x0d, 0x00, 0x00, 0x00, 0x73, 0x74, 0x64, 0x2e,
  0x63, 0x6f, 0x6e, 0x73, 0x74, 0x61, 0x6e, 0x74, 0x31, 0x00, 0x00, 0x00,
  0xac, 0xd8, 0xff, 0xff, 0xa2, 0xd9, 0xff, 0xff, 0x04, 0x00, 0x00, 0x00,
  0x20, 0x00, 0x00, 0x00, 0xc0, 0x78, 0x97, 0xbe, 0x41, 0x94, 0x3f, 0xbd,
  0x92, 0xe4, 0xc9, 0xbd, 0x11, 0x81, 0x70, 0x3f, 0x43, 0xc7, 0x95, 0xbe,
  0x48, 0xc7, 0x2d, 0xbe, 0xf5, 0x45, 0xfb, 0xbd, 0x22, 0x1c, 0xe5, 0xbd,
  0x2a, 0xd9, 0xff, 0xff, 0x10, 0x00, 0x00, 0x00, 0x09, 0x00, 0x00, 0x00,
  0x10, 0x00, 0x00, 0x00, 0x20, 0x00, 0x00, 0x00, 0x01, 0x00, 0x00, 0x00,
  0x08, 0x00, 0x00, 0x00, 0x0c, 0x00, 0x00, 0x00, 0x73, 0x74, 0x64, 0x2e,
  0x63, 0x6f, 0x6e, 0x73, 0x74, 0x61, 0x6e, 0x74, 0x00, 0x00, 0x00, 0x00,
  0x0c, 0xd9, 0xff, 0xff, 0x02, 0xda, 0xff, 0xff, 0x04, 0x00, 0x00, 0x00,
  0x00, 0x06, 0x00, 0x00, 0x7d, 0x5f, 0x2f, 0xbb, 0xaa, 0x8e, 0xa7, 0xbe,
  0x5c, 0xe1, 0xa6, 0xbe, 0x46, 0xe2, 0xa9, 0xbd, 0x5b, 0x16, 0x0c, 0x3e,
  0x6b, 0xed, 0x58, 0xbd, 0xb4, 0x7e, 0x3f, 0x3e, 0x4a, 0xa3, 0x4a, 0x3e,
  0x24, 0x78, 0xe2, 0xbd, 0xb0, 0x41, 0x96, 0xbd, 0x94, 0x47, 0x56, 0xbe,
  0x0c, 0x6c, 0x00, 0x3e, 0xeb, 0xa0, 0x6b, 0xbe, 0xa2, 0x8d, 0x91, 0x3c,
  0xd4, 0x66, 0x29, 0xbe, 0xb2, 0xbb, 0x86, 0x3d, 0x1f, 0x7f, 0x6a, 0xbe,
  0x9b, 0x96, 0x18, 0xbe, 0x58, 0xbc, 0xab, 0xbe, 0xee, 0xd9, 0xaf, 0x3e,
  0x37, 0x05, 0x5a, 0xbc, 0xbb, 0x5e, 0x92, 0xbe, 0x1e, 0x30, 0xfd, 0xbd,
  0x64, 0x1d, 0x66, 0x3e, 0x34, 0xf5, 0x2c, 0xbc, 0xe5, 0x5b, 0x4f, 0x3d,
  0x34, 0xd3, 0x1d, 0x3e, 0xa0, 0x97, 0x9a, 0x3e, 0x09, 0x63, 0x82, 0xbe,
  0x24, 0xca, 0x99, 0xbd, 0x42, 0x8f, 0xe8, 0xbd, 0xf9, 0xd6, 0x68, 0x3d,
  0x59, 0x77, 0xf2, 0x3c, 0xd9, 0x95, 0x14, 0xbe, 0x49, 0x7d, 0xff, 0xbd,
  0x33, 0x6a, 0x5d, 0xbe, 0x97, 0x1d, 0xd2, 0xbd, 0x8d, 0xd7, 0x6a, 0x3e,
  0xf2, 0x51, 0x72, 0x3e, 0x73, 0x4b, 0xd9, 0xbc, 0xc5, 0x14, 0x40, 0xbe,
  0x84, 0xcc, 0xd5, 0xbd, 0xd3, 0x05, 0x44, 0x3d, 0x33, 0xb3, 0x23, 0xbe,
  0xdf, 0x76, 0x04, 0xbe, 0x01, 0xde, 0xb7, 0xbe, 0xbb, 0xac, 0xae, 0xbe,
  0x19, 0x4e, 0x9c, 0xbd, 0xf7, 0x50, 0xc6, 0xbd, 0xfd, 0x26, 0x68, 0xbd,
  0x01, 0x9d, 0x4c, 0xbe, 0xb0, 0x84, 0xf1, 0x3d, 0xdb, 0x06, 0x4b, 0xbd,
  0xff, 0x2f, 0x90, 0xbd, 0x4a, 0xbc, 0xb0, 0xbd, 0x29, 0xd0, 0x77, 0xbe,
  0xe5, 0x37, 0x76, 0x3d, 0xe9, 0x8c, 0x49, 0xbd, 0xb9, 0x1d, 0x5a, 0xbe,
  0xaf, 0x77, 0x99, 0x3e, 0x2f, 0xbc, 0x31, 0xbe, 0x94, 0xad, 0x1e, 0x3d,
  0x37, 0xe6, 0x66, 0xbe, 0xa2, 0x30, 0xef, 0xbd, 0xa6, 0x87, 0xb3, 0xbd,
  0x37, 0xa8, 0x7b, 0x3d, 0x3d, 0xe6, 0xda, 0xbe, 0xe5, 0x1b, 0x55, 0xbe,
  0x2c, 0xd1, 0x97, 0xbe, 0xec, 0x5c, 0x1d, 0x3c, 0xc7, 0xe9, 0x52, 0x3d,
  0x78, 0x27, 0x67, 0x3d, 0xcc, 0x7f, 0x5a, 0x3e, 0x1c, 0x93, 0x53, 0xbd,
  0xe6, 0x65, 0x5c, 0xbd, 0x6d, 0x30, 0x28, 0xbe, 0x51, 0xf6, 0x64, 0xbe,
  0x29, 0xea, 0x37, 0xbd, 0x43, 0x0a, 0x15, 0x3e, 0x20, 0x66, 0x7a, 0xbe,
  0x5e, 0x95, 0x84, 0x3e, 0x09, 0xc0, 0x35, 0xbd, 0x50, 0x96, 0xcf, 0x3e,
  0x4d, 0x39, 0xf1, 0xbd, 0xbf, 0xa7, 0xfe, 0xbc, 0x77, 0x98, 0xfc, 0xbd,
  0x83, 0x51, 0x31, 0xbb, 0x3f, 0xe2, 0xc7, 0x3d, 0xce, 0x4c, 0xd1, 0x3e,
  0x53, 0x25, 0x1d, 0xbe, 0x7d, 0x7b, 0xce, 0x3e, 0xdf, 0x57, 0xb5, 0xbd,
  0xe7, 0xc2, 0x41, 0x3e, 0x7e, 0x05, 0x90, 0x3c, 0x8a, 0xaa, 0x14, 0x3b,
  0x0d, 0xf4, 0x55, 0xbe, 0x19, 0xcd, 0xa0, 0x3d, 0xbf, 0xd5, 0xbc, 0xbd,
  0x84, 0xfe, 0x98, 0xbe, 0x8c, 0xc4, 0x91, 0x3e, 0xee, 0xb3, 0xa4, 0x3d,
  0xaf, 0xa8, 0x14, 0x3e, 0xee, 0xf8, 0x20, 0xbe, 0xa9, 0xc1, 0x55, 0xbe,
  0x39, 0x4c, 0xe4, 0xbe, 0xd0, 0x3a, 0x95, 0xbe, 0x99, 0x4e, 0xc3, 0x3d,
  0xde, 0x20, 0x91, 0xbe, 0xf0, 0xe1, 0xba, 0x3d, 0xb7, 0x46, 0x68, 0xbe,
  0xef, 0xee, 0xa6, 0xbd, 0x05, 0xc0, 0xa7, 0xbd, 0x87, 0x0f, 0x81, 0xbe,
  0xaa, 0x39, 0x1f, 0x3e, 0xbb, 0x9b, 0xcb, 0x3d, 0x79, 0xb7, 0x17, 0x3e,
  0x96, 0x68, 0x2f, 0xbe, 0x11, 0x83, 0x3f, 0xbd, 0xd1, 0xb8, 0x86, 0xbe,
  0x5d, 0x65, 0xe0, 0xbe, 0xa1, 0x22, 0x82, 0xbd, 0x43, 0x1e, 0x99, 0x3d,
  0x12, 0xb8, 0x19, 0x3e, 0xb1, 0xa9, 0x92, 0xbe, 0x32, 0xe0, 0xbf, 0xbd,
  0x05, 0x7e, 0x7a, 0x3e, 0x08, 0x3f, 0x37, 0xbe, 0x22, 0x5d, 0x62, 0x3d,
  0xa3, 0x8e, 0x2d, 0x3e, 0x65, 0xa3, 0x34, 0xbe, 0xaa, 0xea, 0x76, 0x3c,
  0x42, 0x61, 0xd8, 0xbe, 0xeb, 0x1c, 0x5f, 0x3e, 0xca, 0x67, 0x52, 0x3e,
  0x00, 0x2b, 0xc0, 0xbb, 0xef, 0x60, 0xa5, 0xbe, 0xd7, 0x81, 0x3a, 0xbe,
  0x21, 0xe4, 0x40, 0xbe, 0x3b, 0xdd, 0x4c, 0xbe, 0xb7, 0x5b, 0x6a, 0xbd,
  0x16, 0xf5, 0x8c, 0x3e, 0x3a, 0xca, 0x48, 0x3e, 0x76, 0xf0, 0xa9, 0xbd,
  0x79, 0x3f, 0xca, 0x3d, 0x08, 0x8d, 0xc9, 0xbc, 0xcf, 0x1c, 0x8b, 0xbc,
  0x15, 0x3a, 0xb3, 0x3d, 0x26, 0xb7, 0x67, 0x3d, 0x6a, 0x89, 0x8d, 0xbe,
  0xed, 0x40, 0x5c, 0xbe, 0xad, 0xd1, 0x6e, 0xbe, 0xbf, 0x36, 0x7d, 0xbe,
  0x77, 0xac, 0x95, 0xbd, 0x2e, 0x60, 0x54, 0xbd, 0x7b, 0x7f, 0xc0, 0xbe,
  0xf8, 0xd3, 0x8f, 0xbe, 0x1c, 0x16, 0x40, 0xbe, 0x2e, 0xfe, 0xb5, 0xbd,
  0x6e, 0x66, 0x19, 0xba, 0xf3, 0x7e, 0xb4, 0x3d, 0x63, 0x68, 0x8d, 0xbe,
  0x8b, 0x19, 0xc1, 0xbd, 0x18, 0xd7, 0xc3, 0xbe, 0x28, 0x3e, 0x90, 0xbd,
  0x05, 0x1b, 0xcf, 0x3c, 0x9d, 0xa2, 0x32, 0xbe, 0x93, 0x47, 0x3d, 0x3d,
  0x37, 0x28, 0x2d, 0xbe, 0x55, 0x8b, 0x7f, 0x3d, 0xea, 0x8f, 0xa3, 0xbe,
  0xe0, 0x4f, 0x63, 0xbd, 0x03, 0xc4, 0x47, 0xbe, 0x7d, 0x16, 0x8d, 0xbe,
  0x73, 0xa5, 0x69, 0x3e, 0x59, 0x06, 0x83, 0xbd, 0xa3, 0x7b, 0x0a, 0xbd,
  0x86, 0x8c, 0xb1, 0xbd, 0x65, 0x3c, 0xb7, 0xbe, 0x28, 0x77, 0x83, 0xbc,
  0x81, 0xd4, 0x21, 0x3e, 0x50, 0xa9, 0xec, 0xbe, 0x00, 0xb8, 0x88, 0x3d,
  0xe6, 0x6e, 0x58, 0x3e, 0xbe, 0x22, 0xa9, 0xbe, 0x59, 0xc8, 0x0a, 0x3d,
  0x29, 0x69, 0x03, 0xbe, 0xf9, 0xdc, 0x1a, 0xbe, 0x88, 0xad, 0xc2, 0x3d,
  0xf6, 0x0a, 0x95, 0xbc, 0x6f, 0xa4, 0x5b, 0x3e, 0x17, 0x2c, 0x32, 0xbe,
  0x01, 0x89, 0xaa, 0x3d, 0x6f, 0x15, 0x3c, 0x3e, 0x3a, 0x8d, 0x72, 0x3d,
  0x86, 0x0a, 0x9e, 0x3e, 0x85, 0xb1, 0xb7, 0xbd, 0x8d, 0x7f, 0x5e, 0x3d,
  0x4c, 0xe1, 0x52, 0xbd, 0x1c, 0xf5, 0x2c, 0xbe, 0xa9, 0x4e, 0x8a, 0xbe,
  0x59, 0x5e, 0x69, 0xbc, 0xdc, 0xd9, 0xae, 0xbe, 0x9e, 0x69, 0x8b, 0x3d,
  0x04, 0xb1, 0x09, 0xbd, 0xe4, 0xea, 0x9d, 0xbe, 0xac, 0xf9, 0x7f, 0xbe,
  0x9f, 0x4f, 0x10, 0x3e, 0xab, 0xd4, 0x47, 0xbe, 0xa1, 0x2e, 0xa7, 0x3e,
  0x56, 0xcd, 0x19, 0xbe, 0xa8, 0x1a, 0xca, 0x3d, 0xc6, 0x4d, 0x2c, 0x3c,
  0x3c, 0xbe, 0x2b, 0xbc, 0x11, 0x8d, 0x83, 0xbe, 0xb6, 0xfc, 0x7b, 0xbe,
  0x5e, 0xe4, 0x8d, 0xbe, 0x28, 0x13, 0x36, 0x3d, 0x16, 0x2a, 0x48, 0xbd,
  0x5d, 0x84, 0xae, 0xbd, 0xc9, 0x6c, 0x9c, 0xbd, 0x92, 0xee, 0xdc, 0xbd,
  0x67, 0xb8, 0x66, 0xbe, 0xfa, 0xfe, 0xb6, 0x3d, 0xdf, 0x03, 0x57, 0xbd,
  0xd8, 0x59, 0x6e, 0x3d, 0x64, 0xef, 0x95, 0xbd, 0x07, 0xa0, 0xbf, 0x3e,
  0x54, 0xcb, 0x79, 0xbc, 0x98, 0x15, 0x19, 0xbe, 0x79, 0x42, 0x45, 0xbe,
  0x72, 0x89, 0x39, 0xbe, 0xb9, 0xfa, 0x13, 0x3e, 0xa9, 0x60, 0xe0, 0x3e,
  0x26, 0x30, 0x2a, 0xbe, 0xd7, 0xbc, 0x79, 0xbd, 0xc2, 0xe5, 0x27, 0x3d,
  0x42, 0x12, 0xc2, 0x3d, 0xc2, 0x9e, 0xa3, 0xbe, 0x00, 0x83, 0xcc, 0x3d,
  0x06, 0x73, 0x8a, 0xbe, 0x63, 0x50, 0xc4, 0x3d, 0xd5, 0xc5, 0xde, 0x3c,
  0x8f, 0x08, 0xdd, 0xbe, 0xf6, 0xd2, 0xe3, 0xbe, 0x1b, 0xdc, 0x1e, 0x3e,
  0x97, 0xb7, 0x17, 0x3f, 0x5f, 0x15, 0xdc, 0xbe, 0xf5, 0x73, 0x0d, 0xbe,
  0xb5, 0x76, 0xa6, 0xbc, 0x6b, 0x99, 0xf9, 0xbd, 0x12, 0xf2, 0x50, 0xbe,
  0xd3, 0xbb, 0xee, 0xbe, 0xf1, 0x67, 0x34, 0x3e, 0x39, 0x86, 0x10, 0x3f,
  0x2b, 0x1c, 0x08, 0xbf, 0xe0, 0xba, 0x71, 0x3d, 0x71, 0x01, 0x6b, 0x3d,
  0xb4, 0xf0, 0xcb, 0xbd, 0x7b, 0x3e, 0x10, 0x3c, 0x99, 0x17, 0xd0, 0xbe,
  0xb8, 0x3e, 0x42, 0xbd, 0xd5, 0xf6, 0x1b, 0x3e, 0x88, 0xbd, 0xeb, 0xbe,
  0x57, 0x96, 0x04, 0x3d, 0xd2, 0xf4, 0x25, 0x3d, 0x87, 0x55, 0x95, 0xbe,
  0x7a, 0x66, 0xcd, 0xbd, 0x4a, 0xb3, 0x17, 0xbe, 0x0f, 0x11, 0x30, 0xbe,
  0x51, 0x80, 0x7c, 0xbe, 0x6c, 0x13, 0x22, 0xbd, 0x34, 0x3e, 0x45, 0xbe,
  0x27, 0xc2, 0x97, 0x3e, 0xa0, 0x2b, 0x28, 0xbe, 0x73, 0xcc, 0x3e, 0x3e,
  0x79, 0x2a, 0x8b, 0xbd, 0x14, 0x54, 0x31, 0xbe, 0xee, 0x47, 0x27, 0xbe,
  0xce, 0xba, 0x14, 0x3d, 0x2f, 0x09, 0x5d, 0x3e, 0x9a, 0x67, 0x20, 0xbd,
  0xfb, 0xd6, 0x7e, 0xbe, 0x3a, 0x72, 0x5f, 0x3e, 0xa2, 0x86, 0xe4, 0xbd,
  0x82, 0x52, 0xc7, 0xbc, 0x53, 0x5c, 0xd6, 0x3d, 0x3a, 0xee, 0x04, 0x3e,
  0xcb, 0xfc, 0xa3, 0x3d, 0x02, 0x1e, 0x9a, 0x3e, 0x20, 0x53, 0x4b, 0xbd,
  0x98, 0xf0, 0x6a, 0xbd, 0x2e, 0x6f, 0x64, 0xbe, 0xee, 0x3c, 0x9c, 0x3d,
  0xc4, 0xf1, 0xb7, 0xbb, 0x6b, 0xc6, 0x24, 0x3d, 0x7d, 0x38, 0x7d, 0xbd,
  0x0b, 0xc0, 0x42, 0xba, 0x58, 0xd7, 0x89, 0x3d, 0x6b, 0x71, 0x4a, 0x3e,
  0x15, 0x7d, 0x7f, 0xbe, 0x95, 0x91, 0xa2, 0xbd, 0x7b, 0xef, 0x8f, 0x3e,
  0x43, 0x71, 0xc7, 0xbd, 0x2a, 0x20, 0x87, 0x3e, 0x8f, 0x0d, 0xee, 0x3d,
  0xb7, 0xf7, 0x5f, 0x3e, 0xfc, 0x10, 0xa2, 0xbe, 0xd1, 0x64, 0x8c, 0xbe,
  0x62, 0xd9, 0xdf, 0x3d, 0xc4, 0x37, 0x84, 0xbc, 0x0c, 0xff, 0x11, 0x3e,
  0x32, 0x39, 0xb6, 0x3d, 0x24, 0xca, 0x0b, 0xbe, 0x13, 0x62, 0xc6, 0xbd,
  0xb1, 0x12, 0x22, 0x3d, 0x0b, 0x4f, 0x9a, 0xbd, 0xcc, 0xb5, 0x8b, 0xbd,
  0x05, 0xc4, 0x3c, 0x3e, 0x99, 0xb8, 0x00, 0xbf, 0x3b, 0x14, 0x35, 0x3e,
  0xed, 0x5f, 0x26, 0xbe, 0x92, 0x5f, 0x6e, 0xbe, 0xbe, 0x18, 0xd0, 0xbd,
  0xec, 0x6c, 0x5f, 0xbe, 0xeb, 0xdf, 0x45, 0x3e, 0x78, 0x48, 0x9a, 0x3e,
  0xbc, 0x88, 0x9d, 0xbe, 0x0e, 0x12, 0x0b, 0xbe, 0xef, 0x4a, 0x37, 0x3e,
  0xbc, 0xa4, 0xdc, 0x3d, 0x5a, 0x6d, 0x47, 0x3d, 0x44, 0x0f, 0x80, 0xbe,
  0x75, 0x82, 0x88, 0xbe, 0xbe, 0x98, 0x77, 0x3d, 0x3d, 0x4a, 0x85, 0xbe,
  0x82, 0x28, 0x08, 0x3e, 0x69, 0xc5, 0x7d, 0xbe, 0xc0, 0x42, 0x7f, 0x3d,
  0xd0, 0xe0, 0x17, 0x3d, 0x03, 0x7d, 0x63, 0x3e, 0xbd, 0xbf, 0x8f, 0xbe,
  0xf3, 0x7f, 0x91, 0x3e, 0x64, 0x95, 0x42, 0x3e, 0x43, 0xd5, 0xc3, 0x3d,
  0x86, 0x81, 0x1a, 0xbe, 0x11, 0xf1, 0xf0, 0xbd, 0xa1, 0x05, 0x9a, 0xbe,
  0xda, 0x56, 0x45, 0x3e, 0x84, 0xec, 0x68, 0xbe, 0x3b, 0x14, 0x1f, 0x3d,
  0x15, 0x3e, 0x22, 0xbe, 0x76, 0x7a, 0x4a, 0xbe, 0xdd, 0x14, 0x3b, 0xbe,
  0x91, 0x0d, 0x36, 0xbd, 0xcc, 0x6e, 0xd9, 0xbd, 0x30, 0x23, 0xfd, 0x3e,
  0xdf, 0xd0, 0x5e, 0xbe, 0x2a, 0x5c, 0x32, 0x3e, 0x07, 0xcf, 0x19, 0x3e,
  0x16, 0x5c, 0x24, 0xbe, 0xdc, 0xe6, 0x7e, 0x3e, 0xa2, 0x97, 0xb6, 0xbe,
  0x81, 0x30, 0xd2, 0x3d, 0x8f, 0x56, 0x15, 0x3e, 0x41, 0x0e, 0x1b, 0x3e,
  0x67, 0x6e, 0xbd, 0xbe, 0x57, 0x0b, 0x2c, 0xbe, 0x56, 0x58, 0x59, 0xbe,
  0x5e, 0x7f, 0x0c, 0xbe, 0x37, 0x9c, 0x4e, 0xbe, 0xdc, 0x25, 0xba, 0x3e,
  0xb1, 0xad, 0x41, 0xbd, 0x65, 0x94, 0xc1, 0x3b, 0x85, 0xb1, 0x53, 0xbe,
  0xfe, 0x77, 0x15, 0x3e, 0xdc, 0x14, 0x29, 0xbc, 0xa5, 0x03, 0xc0, 0x3e,
  0xdc, 0xaa, 0xdb, 0xbc, 0x58, 0x55, 0x27, 0x3e, 0xe5, 0x3f, 0xda, 0xbd,
  0xd4, 0x37, 0x01, 0xbe, 0xe8, 0x31, 0xe9, 0x3b, 0x43, 0x9d, 0x1f, 0x3b,
  0x25, 0xbc, 0x22, 0xbe, 0x6a, 0xdf, 0xff, 0xff, 0x10, 0x00, 0x00, 0x00,
  0x08, 0x00, 0x00, 0x00, 0x1c, 0x00, 0x00, 0x00, 0x38, 0x00, 0x00, 0x00,
  0x04, 0x00, 0x00, 0x00, 0x10, 0x00, 0x00, 0x00, 0x03, 0x00, 0x00, 0x00,
  0x01, 0x00, 0x00, 0x00, 0x08, 0x00, 0x00, 0x00, 0x1a, 0x00, 0x00, 0x00,
  0x73, 0x65, 0x71, 0x75, 0x65, 0x6e, 0x74, 0x69, 0x61, 0x6c, 0x2f, 0x63,
  0x6f, 0x6e, 0x76, 0x32, 0x64, 0x5f, 0x31, 0x2f, 0x43, 0x6f, 0x6e, 0x76,
  0x32, 0x44, 0x00, 0x00, 0x64, 0xdf, 0xff, 0xff, 0x5a, 0xe0, 0xff, 0xff,
  0x04, 0x00, 0x00, 0x00, 0x20, 0x01, 0x00, 0x00, 0xea, 0xc0, 0x50, 0xbf,
  0x89, 0xb4, 0x60, 0x3c, 0xa4, 0xc1, 0x22, 0xbf, 0xa2, 0x03, 0x16, 0xbe,
  0x9e, 0x16, 0x2c, 0xbc, 0xdd, 0x29, 0x00, 0xbf, 0x63, 0xcc, 0x74, 0xbe,
  0xd7, 0xb8, 0x92, 0x3d, 0x65, 0x8e, 0x33, 0xbf, 0x7a, 0x77, 0x58, 0x3e,
  0xea, 0x4a, 0xdf, 0x3c, 0x7d, 0xaf, 0x4b, 0xbd, 0x03, 0x43, 0x5d, 0x3e,
  0x83, 0x10, 0xb5, 0x3d, 0xc6, 0xec, 0x42, 0x3d, 0xd1, 0x4a, 0x38, 0x3e,
  0x62, 0x12, 0x68, 0x3b, 0x80, 0xa0, 0xe1, 0xbc, 0xa4, 0x6c, 0x37, 0xbe,
  0x8b, 0xad, 0x16, 0x3b, 0xe7, 0xa5, 0xc3, 0xbe, 0x9d, 0x45, 0x97, 0xbe,
  0x7d, 0xaa, 0x1c, 0x3e, 0x32, 0x37, 0x03, 0xbf, 0x08, 0x11, 0xab, 0xbe,
  0x0b, 0x14, 0x45, 0xbe, 0x37, 0xef, 0x1d, 0xbf, 0x2d, 0xff, 0xaa, 0xbe,
  0xa7, 0xbf, 0xc6, 0xbc, 0x28, 0x84, 0x40, 0xbe, 0xee, 0x40, 0x02, 0xbf,
  0x0d, 0x18, 0x6e, 0xbe, 0x60, 0x3f, 0x99, 0x3d, 0x04, 0x83, 0x14, 0xbf,
  0x9f, 0x0d, 0x76, 0xbd, 0xab, 0xb3, 0x20, 0x3e, 0x2e, 0x8b, 0x8a, 0x3e,
  0xc3, 0x47, 0xa9, 0xbd, 0x8c, 0x24, 0x1e, 0xbe, 0xe9, 0x2a, 0x35, 0x3e,
  0x46, 0xee, 0xe1, 0x3d, 0x47, 0xdd, 0xe9, 0x3d, 0xc8, 0x76, 0xbc, 0x3e,
  0x08, 0x18, 0xd8, 0xbd, 0xcb, 0x07, 0xbf, 0x3d, 0x66, 0x6c, 0x2c, 0x3e,
  0xfa, 0xd8, 0x53, 0xbe, 0x1e, 0xe3, 0x42, 0x3d, 0x4e, 0x56, 0x0c, 0x3f,
  0x0f, 0xee, 0x7d, 0xbe, 0x9c, 0x86, 0x5e, 0xbe, 0xf7, 0x03, 0xec, 0x3e,
  0x5d, 0xc9, 0x79, 0x3d, 0x3c, 0x12, 0x94, 0x3d, 0x3e, 0x4c, 0x22, 0xbe,
  0xc6, 0x80, 0xa9, 0xbe, 0x90, 0x19, 0xc1, 0x3c, 0xcf, 0xe8, 0x1a, 0xbe,
  0xf6, 0x9a, 0x5f, 0xbe, 0x2b, 0x41, 0x29, 0x3e, 0x9a, 0x39, 0xe3, 0xbc,
  0xb4, 0x86, 0xf4, 0x3c, 0x8d, 0xe5, 0x42, 0xbd, 0x41, 0x78, 0xcb, 0xbc,
  0xbd, 0x29, 0x8d, 0xbc, 0x22, 0x9f, 0xc1, 0xbd, 0x35, 0xc8, 0x44, 0x3e,
  0x03, 0xcc, 0x09, 0xbe, 0x45, 0x7d, 0x05, 0xbe, 0x10, 0xaa, 0xad, 0x3e,
  0xa7, 0xb0, 0x53, 0x3d, 0x01, 0xe8, 0x1e, 0x3d, 0xe2, 0xe0, 0xff, 0xff,
  0x10, 0x00, 0x00, 0x00, 0x07, 0x00, 0x00, 0x00, 0x1c, 0x00, 0x00, 0x00,
  0x38, 0x00, 0x00, 0x00, 0x04, 0x00, 0x00, 0x00, 0x08, 0x00, 0x00, 0x00,
  0x03, 0x00, 0x00, 0x00, 0x03, 0x00, 0x00, 0x00, 0x01, 0x00, 0x00, 0x00,
  0x18, 0x00, 0x00, 0x00, 0x73, 0x65, 0x71, 0x75, 0x65, 0x6e, 0x74, 0x69,
  0x61, 0x6c, 0x2f, 0x63, 0x6f, 0x6e, 0x76, 0x32, 0x64, 0x2f, 0x43, 0x6f,
  0x6e, 0x76, 0x32, 0x44, 0x00, 0x00, 0x00, 0x00, 0xdc, 0xe0, 0xff, 0xff,
  0xd2, 0xe1, 0xff, 0xff, 0x04, 0x00, 0x00, 0x00, 0xc0, 0x00, 0x00, 0x00,
  0x5a, 0x18, 0x48, 0x3e, 0x9d, 0x86, 0x8c, 0x3e, 0x7e, 0x19, 0xb5, 0xbe,
  0x62, 0x22, 0x39, 0x3d, 0x63, 0xe4, 0xf1, 0x3c, 0x4b, 0x52, 0xad, 0x3d,
  0x7c, 0xfc, 0x01, 0x3e, 0x34, 0x84, 0xb3, 0xbe, 0x6a, 0xdd, 0x2e, 0x3e,
  0x30, 0x53, 0xe2, 0xbd, 0xd5, 0x87, 0xdb, 0xbe, 0x49, 0x98, 0x71, 0x3e,
  0x93, 0xe2, 0xaa, 0x3e, 0xa6, 0xea, 0x83, 0x3e, 0x5f, 0x71, 0x40, 0x3d,
  0x77, 0xbc, 0xbb, 0xbe, 0xbe, 0x67, 0xca, 0x3e, 0x1e, 0xdd, 0x01, 0xbf,
  0x06, 0xb8, 0x42, 0xbe, 0xae, 0xdd, 0xec, 0x3e, 0xf2, 0x2d, 0x6d, 0x3e,
  0x6d, 0x84, 0xa6, 0x3e, 0x9b, 0xec, 0x27, 0xbe, 0x53, 0x64, 0x95, 0xbe,
  0x00, 0x84, 0x05, 0xbd, 0x2e, 0x28, 0xb2, 0x3e, 0x90, 0xa9, 0xf0, 0xbe,
  0xe8, 0xd2, 0xe4, 0xbe, 0x5c, 0xde, 0x90, 0xbe, 0x4f, 0x1b, 0xa2, 0xbe,
  0xdb, 0xd4, 0xcb, 0xbe, 0x25, 0xa8, 0xb9, 0x3e, 0x9d, 0x11, 0xa4, 0x3e,
  0x77, 0x3c, 0x41, 0xbf, 0xad, 0x42, 0x85, 0xbe, 0xbd, 0x0e, 0x51, 0x3e,
  0xd8, 0x63, 0xe1, 0xbd, 0x9c, 0x32, 0x69, 0x3e, 0x9c, 0xba, 0x9a, 0xbd,
  0x01, 0xb0, 0xde, 0xbd, 0xf3, 0xad, 0x50, 0x3e, 0xd5, 0x03, 0xd0, 0xbe,
  0xec, 0xf3, 0x02, 0xbf, 0xe6, 0x8c, 0x33, 0xbe, 0x7e, 0xbd, 0xbe, 0x3e,
  0xe7, 0x8b, 0xf3, 0xbe, 0x70, 0x01, 0xe5, 0xbe, 0x9b, 0xab, 0x50, 0x3e,
  0xfa, 0xe1, 0xff, 0xff, 0x10, 0x00, 0x00, 0x00, 0x06, 0x00, 0x00, 0x00,
  0x14, 0x00, 0x00, 0x00, 0x30, 0x00, 0x00, 0x00, 0x02, 0x00, 0x00, 0x00,
  0x03, 0x00, 0x00, 0x00, 0x10, 0x00, 0x00, 0x00, 0x19, 0x00, 0x00, 0x00,
  0x73, 0x65, 0x71, 0x75, 0x65, 0x6e, 0x74, 0x69, 0x61, 0x6c, 0x2f, 0x64,
  0x65, 0x6e, 0x73, 0x65, 0x5f, 0x31, 0x2f, 0x4d, 0x61, 0x74, 0x4d, 0x75,
  0x6c, 0x00, 0x00, 0x00, 0xec, 0xe1, 0xff, 0xff, 0xe2, 0xe2, 0xff, 0xff,
  0x04, 0x00, 0x00, 0x00, 0x00, 0x1c, 0x00, 0x00, 0xa2, 0x6d, 0x05, 0x3e,
  0x35, 0x9a, 0x90, 0x3e, 0xca, 0xc6, 0x91, 0x3e, 0xd2, 0x24, 0xb6, 0xbd,
  0x49, 0x3f, 0x2f, 0x3e, 0x66, 0xc5, 0x9f, 0xbc, 0x4e, 0x61, 0x4c, 0x3e,
  0x85, 0x2d, 0x99, 0x3d, 0x44, 0xa5, 0xa3, 0xbb, 0x7f, 0xa5, 0xb4, 0xbd,
  0x90, 0xa9, 0x43, 0x3e, 0x87, 0x28, 0xa2, 0xbd, 0xa1, 0x1d, 0xdc, 0x3d,
  0xc2, 0x58, 0xdf, 0x3c, 0xd1, 0xfc, 0x2f, 0xbd, 0x7a, 0xcf, 0x83, 0x3d,
  0xec, 0xb2, 0xb9, 0x3c, 0x45, 0xbd, 0x8c, 0xbd, 0x19, 0xdf, 0xe9, 0xbd,
  0xc0, 0x4e, 0x9d, 0xbd, 0x7f, 0x32, 0x9d, 0x3e, 0x35, 0x01, 0xce, 0x3c,
  0xb0, 0x0e, 0x85, 0x3e, 0x33, 0x86, 0x9a, 0x3d, 0x65, 0x1e, 0x55, 0xbe,
  0xf2, 0xaa, 0xf9, 0xbd, 0x23, 0x60, 0x63, 0x3e, 0x73, 0x68, 0x5b, 0xbe,
  0xae, 0x78, 0xc8, 0x3d, 0xd4, 0xab, 0xd4, 0x3e, 0x75, 0xf2, 0xb6, 0xbc,
  0x20, 0x6c, 0x0a, 0xbe, 0x37, 0xa3, 0x9e, 0x3e, 0xf5, 0x6b, 0x26, 0xbd,
  0x41, 0xd7, 0x92, 0xbe, 0x73, 0x04, 0xb2, 0xbc, 0xac, 0x67, 0xf1, 0x3e,
  0xb5, 0xfb, 0x03, 0xbd, 0xb7, 0x09, 0x18, 0xbd, 0xdc, 0x81, 0xf3, 0x3c,
  0x32, 0x39, 0xa4, 0x3d, 0xe2, 0xb3, 0xcd, 0xbd, 0x1f, 0x9e, 0x8e, 0x3d,
  0xc3, 0x91, 0x77, 0xbd, 0x96, 0xe7, 0x92, 0x3d, 0xda, 0x9b, 0x55, 0x3e,
  0x2c, 0x2d, 0x44, 0xbe, 0x51, 0xc5, 0x37, 0xbe, 0xcd, 0x3d, 0xa5, 0xbb,
  0x1d, 0xb0, 0x7a, 0xbc, 0xa2, 0x72, 0x55, 0xbe, 0x2a, 0x95, 0x12, 0xbe,
  0xd3, 0x49, 0x6f, 0x3c, 0x55, 0xdb, 0xe3, 0xbd, 0x0f, 0x14, 0x20, 0xbe,
  0x3c, 0x73, 0xdb, 0x3a, 0x40, 0x49, 0xe8, 0x3e, 0x29, 0xe8, 0x9c, 0x3d,
  0xd5, 0x62, 0x48, 0x3d, 0xc7, 0x13, 0xa2, 0x3d, 0x56, 0xd2, 0x8b, 0x3c,
  0x22, 0xb1, 0xe9, 0xbd, 0x72, 0x57, 0xc8, 0xbc, 0x01, 0x89, 0x3e, 0x3e,
  0xf3, 0x43, 0xd1, 0x3e, 0x70, 0x5b, 0x47, 0x3d, 0x6d, 0x37, 0xdb, 0x3c,
  0x2e, 0x38, 0x30, 0xbe, 0x44, 0x82, 0xbf, 0x3e, 0x8f, 0xc4, 0x03, 0x3e,
  0xdd, 0xc2, 0x3e, 0x3e, 0x56, 0xad, 0x97, 0x3d, 0x6d, 0x34, 0x27, 0xbd,
  0x0b, 0xdd, 0x34, 0xbe, 0x28, 0xf2, 0x5e, 0x3e, 0x51, 0x65, 0x81, 0x3d,
  0x7e, 0x1e, 0xfc, 0x3b, 0x2d, 0x0a, 0x26, 0x3d, 0x09, 0x26, 0x87, 0xbb,
  0x47, 0xd2, 0x8e, 0xbe, 0xde, 0xce, 0x02, 0x3e, 0xb5, 0xa9, 0x2c, 0xbe,
  0xca, 0xa7, 0xbc, 0xbe, 0x89, 0xc8, 0xb8, 0xbc, 0xba, 0x65, 0x17, 0x3d,
  0xdf, 0x30, 0x7a, 0x3c, 0x05, 0x76, 0x1e, 0xbc, 0xe9, 0x0e, 0xbf, 0x3b,
  0xbb, 0x85, 0xaf, 0xbe, 0x3f, 0xc2, 0x27, 0xbe, 0x60, 0xbd, 0x06, 0x3e,
  0x1a, 0x73, 0x1a, 0xbe, 0x8a, 0x8a, 0x90, 0x3d, 0x3d, 0x0c, 0xe8, 0x3d,
  0xcb, 0xfa, 0x41, 0xbe, 0xe9, 0xc2, 0x36, 0xbe, 0xee, 0xb2, 0xa5, 0x3e,
  0xa5, 0x4d, 0xe1, 0xbd, 0x0e, 0xb8, 0x0d, 0xbf, 0xfd, 0xf7, 0x4e, 0xbe,
  0x78, 0xc1, 0x63, 0x3e, 0xab, 0x75, 0x24, 0x3d, 0x6f, 0xc6, 0x60, 0x3e,
  0x9f, 0xc7, 0xd4, 0x3d, 0x46, 0xe9, 0x94, 0xbe, 0xf5, 0xf8, 0xa2, 0xbe,
  0x81, 0xe4, 0x2c, 0x3e, 0x46, 0xf6, 0x26, 0x3e, 0x0a, 0x33, 0xb2, 0x3d,
  0x44, 0x7d, 0xaa, 0x3c, 0xa0, 0xa4, 0x4f, 0xbe, 0x83, 0x4f, 0x5b, 0xbe,
  0x74, 0x71, 0xe8, 0x3e, 0x15, 0xbb, 0x96, 0xbd, 0x1b, 0x9f, 0x29, 0xbe,
  0xf1, 0x4f, 0x0d, 0xbe, 0xfe, 0xe1, 0x04, 0x3f, 0xd8, 0x89, 0x24, 0xba,
  0xdc, 0xaf, 0x47, 0x3e, 0xfd, 0x29, 0x86, 0x3e, 0xcc, 0xcc, 0xaf, 0x3d,
  0x6f, 0xbb, 0x79, 0x3d, 0xf8, 0xb9, 0xd1, 0xbc, 0x59, 0xd8, 0x4c, 0xbe,
  0x66, 0x24, 0x2b, 0xbe, 0x6f, 0xd7, 0x22, 0xbd, 0x66, 0xc6, 0x4c, 0x3d,
  0xbc, 0xe6, 0x93, 0xbe, 0x00, 0xc7, 0x9e, 0xbc, 0xfd, 0x40, 0x25, 0x3d,
  0x63, 0x6e, 0x60, 0x3e, 0xf4, 0x25, 0xed, 0xbd, 0x99, 0x00, 0x34, 0x3f,
  0x44, 0x6b, 0x45, 0xbe, 0xce, 0xcd, 0x94, 0x3e, 0x7f, 0x6e, 0x20, 0x3f,
  0x72, 0xd0, 0x88, 0xbd, 0x56, 0xc5, 0x16, 0xbe, 0xf0, 0x3f, 0x17, 0xbd,
  0x07, 0xbd, 0x25, 0xbe, 0x2d, 0x6b, 0x64, 0xbe, 0xa5, 0x4d, 0x32, 0xbe,
  0xf7, 0x27, 0x8d, 0xbd, 0x3a, 0x6d, 0xa0, 0xbd, 0xaa, 0x00, 0x94, 0x3e,
  0xe9, 0x80, 0x04, 0x3d, 0x14, 0x87, 0x94, 0x3e, 0xbf, 0x21, 0x46, 0x3d,
  0xa8, 0x5d, 0x25, 0x3f, 0xac, 0x80, 0xda, 0xbd, 0x8b, 0x07, 0x91, 0xbd,
  0xb3, 0x35, 0x38, 0x3f, 0x13, 0xd5, 0x5f, 0xbe, 0x2f, 0x4c, 0x32, 0xbc,
  0x53, 0xd6, 0xf0, 0xbd, 0xb2, 0x6e, 0xc4, 0xbc, 0x48, 0xc3, 0xd1, 0xbd,
  0xe1, 0xca, 0x1d, 0xbe, 0xa3, 0x95, 0xc5, 0x3d, 0x5e, 0x83, 0x5d, 0x3d,
  0xde, 0xd8, 0x79, 0x3e, 0xa2, 0x73, 0x30, 0xbd, 0x5c, 0x64, 0x75, 0x3e,
  0xdb, 0xa0, 0xf4, 0xbd, 0x38, 0x4f, 0x36, 0x3f, 0x0d, 0xa0, 0x5b, 0xbe,
  0x96, 0x60, 0x15, 0x3e, 0x1f, 0xca, 0x31, 0x3f, 0x99, 0x1d, 0x66, 0xbe,
  0x4d, 0x6b, 0x3a, 0xbe, 0x12, 0xf9, 0x3e, 0xbd, 0x09, 0xe2, 0x82, 0xbe,
  0xc7, 0x84, 0x95, 0xbe, 0xfe, 0x87, 0x0d, 0x3d, 0x9e, 0x3e, 0x94, 0x3c,
  0x8e, 0xfb, 0x29, 0xbc, 0xf0, 0x9d, 0x1e, 0x3e, 0xd3, 0x8c, 0x7d, 0x3c,
  0xbd, 0x69, 0xb7, 0x3e, 0x4e, 0x7f, 0x2e, 0x3c, 0xab, 0xba, 0x12, 0x3f,
  0x00, 0x5a, 0x17, 0xbe, 0x0e, 0x0d, 0x1b, 0xbe, 0x8f, 0x7f, 0xfb, 0x3e,
  0x82, 0x49, 0x61, 0xbe, 0x4d, 0x59, 0x3d, 0xbe, 0xcc, 0xca, 0x52, 0xbe,
  0x9b, 0x32, 0xc0, 0xbd, 0x0c, 0xee, 0x57, 0xbe, 0x6a, 0x75, 0xe2, 0xbc,
  0x72, 0x1e, 0x52, 0xbe, 0xd0, 0xae, 0x67, 0xbd, 0x3a, 0x09, 0xb8, 0x3d,
  0x1b, 0xa9, 0xa4, 0x3e, 0x4e, 0x3d, 0xa1, 0x3e, 0xb2, 0xa6, 0xd0, 0xbd,
  0xe3, 0x22, 0x47, 0x3f, 0xcb, 0x4c, 0x1d, 0xbe, 0x35, 0x1c, 0x9f, 0x3d,
  0xba, 0x11, 0x0d, 0x3f, 0xeb, 0x54, 0x4c, 0xbd, 0xd7, 0x43, 0x6c, 0xbe,
  0x18, 0x1f, 0xfe, 0xbc, 0xff, 0x67, 0x37, 0xbc, 0xe3, 0xcb, 0x81, 0xbd,
  0x25, 0x07, 0x6c, 0xbd, 0x52, 0xc6, 0x51, 0x3d, 0x7d, 0x45, 0xa0, 0xbe,
  0xd8, 0x94, 0x15, 0x3e, 0x92, 0x72, 0x1a, 0xbe, 0x2a, 0x78, 0x8b, 0x3e,
  0x7e, 0xf5, 0x28, 0xbe, 0x81, 0xac, 0xcb, 0x3e, 0x50, 0x9c, 0x01, 0x3d,
  0xde, 0xd8, 0x56, 0xbe, 0x8b, 0xdc, 0xb9, 0x3e, 0x3a, 0x6b, 0x10, 0xbc,
  0xcf, 0xf2, 0xeb, 0xbd, 0xe4, 0xb8, 0x21, 0xbd, 0x6d, 0x49, 0x81, 0xbc,
  0x4a, 0x00, 0x8d, 0xbe, 0x9b, 0x52, 0xc0, 0xbc, 0x9a, 0x43, 0xb5, 0xbd,
  0x33, 0x33, 0x7e, 0xbe, 0x1f, 0x20, 0x5d, 0x3e, 0xc3, 0xfb, 0x72, 0x3d,
  0x79, 0x64, 0xed, 0x3e, 0xb3, 0x77, 0x2f, 0x3d, 0x9b, 0xad, 0x3d, 0x3e,
  0x2e, 0x44, 0x9c, 0xbd, 0x03, 0xd5, 0x33, 0xbe, 0x0f, 0xe4, 0x84, 0x3d,
  0xa1, 0xbe, 0x2f, 0xbd, 0xad, 0x60, 0x6b, 0xbc, 0x8e, 0x53, 0x5b, 0x3e,
  0x78, 0x9a, 0x1e, 0x3e, 0xf4, 0x3b, 0xb0, 0xbc, 0x8d, 0x39, 0x14, 0xbe,
  0x0b, 0x76, 0x86, 0xbe, 0xd9, 0x80, 0x27, 0x3d, 0xb4, 0x22, 0x87, 0xbd,
  0x77, 0x6c, 0x17, 0x3e, 0x9c, 0x04, 0xae, 0x3d, 0x58, 0x97, 0x62, 0xbe,
  0xf2, 0xf7, 0xff, 0xbc, 0x25, 0x65, 0x08, 0xbe, 0xb6, 0xc9, 0x65, 0x3a,
  0x7a, 0x0a, 0x29, 0xbe, 0x0d, 0x17, 0x28, 0xbd, 0x22, 0xe1, 0xee, 0xbc,
  0x21, 0x72, 0x28, 0x3e, 0xb4, 0x3f, 0x4d, 0xbe, 0x30, 0x2d, 0x8e, 0x3d,
  0x81, 0xd6, 0x75, 0x3e, 0xfd, 0xd1, 0x65, 0x3c, 0xda, 0x2b, 0x4b, 0xbe,
  0x1d, 0xfa, 0x02, 0x3c, 0xac, 0x90, 0x86, 0xbd, 0xd2, 0x0e, 0x40, 0xbe,
  0xe0, 0xc7, 0x03, 0xbe, 0x83, 0xa4, 0x61, 0x3d, 0xea, 0xcf, 0x46, 0x3e,
  0x47, 0x77, 0x95, 0x3d, 0x4d, 0x8c, 0x01, 0xbe, 0x1b, 0xe6, 0x2b, 0x3d,
  0x26, 0x0e, 0xfe, 0x3d, 0xc9, 0x60, 0x79, 0x3e, 0x7b, 0x96, 0xb8, 0xbc,
  0x20, 0xd2, 0xf0, 0x3b, 0xa4, 0xc9, 0x3b, 0xbd, 0xd8, 0xc7, 0x04, 0xbe,
  0xc8, 0xcb, 0xd8, 0xbd, 0x13, 0x81, 0xb1, 0x3d, 0xbc, 0xed, 0x25, 0x3e,
  0xc1, 0x26, 0x94, 0x3d, 0xd4, 0xcb, 0x85, 0x3c, 0xa8, 0x21, 0x07, 0x3d,
  0xc9, 0x22, 0x22, 0xbe, 0x53, 0x47, 0x4e, 0x3e, 0x81, 0x6d, 0xba, 0x3d,
  0x01, 0x5f, 0x0f, 0xbd, 0x74, 0x36, 0x61, 0x3e, 0xaf, 0x8b, 0xce, 0xbc,
  0xb4, 0x6d, 0x30, 0xbd, 0x8d, 0x2d, 0xc3, 0x3d, 0x57, 0xea, 0xbf, 0x3c,
  0xdb, 0xf2, 0x3a, 0xbc, 0x52, 0x80, 0x82, 0x3c, 0x19, 0x8b, 0x85, 0x3e,
  0xb9, 0x7f, 0x44, 0x3e, 0x86, 0x5e, 0x4c, 0xbd, 0xba, 0x0e, 0x48, 0xbd,
  0x3d, 0x45, 0x1b, 0x3e, 0xdf, 0x40, 0xa8, 0x3d, 0xd7, 0xe9, 0x0a, 0x3e,
  0x77, 0xc5, 0x37, 0x3e, 0xbe, 0x96, 0x67, 0xbe, 0x73, 0xe7, 0x63, 0xbc,
  0xd7, 0x52, 0x95, 0xbd, 0xb1, 0x6f, 0x3e, 0x3d, 0x1d, 0x3b, 0x99, 0x3c,
  0x9e, 0xba, 0x50, 0x3d, 0x4e, 0x68, 0x0c, 0x3d, 0xf4, 0x3b, 0x74, 0xbd,
  0xcf, 0xf7, 0x6a, 0x3e, 0xee, 0xd7, 0x7e, 0xbd, 0xb8, 0xca, 0x70, 0x3c,
  0x15, 0xde, 0x92, 0xbd, 0x80, 0xf3, 0x82, 0x3e, 0xdb, 0x70, 0x32, 0xbd,
  0xc5, 0x2c, 0x6c, 0xbd, 0x61, 0xfa, 0x34, 0x3e, 0xf2, 0x72, 0xac, 0xbe,
  0x1f, 0xd1, 0x0b, 0xbe, 0xa3, 0x80, 0x39, 0x3e, 0x76, 0xd3, 0x80, 0xbd,
  0x28, 0x7b, 0xca, 0x3d, 0x68, 0xc4, 0x05, 0x3e, 0x54, 0x3b, 0xba, 0xbd,
  0xaa, 0x18, 0x43, 0xbd, 0x23, 0x0a, 0xbb, 0x3d, 0x33, 0x27, 0x3e, 0x3d,
  0xd7, 0xfc, 0x86, 0xbe, 0x85, 0x2c, 0x08, 0xbe, 0x44, 0x77, 0x4e, 0x3d,
  0x37, 0xf4, 0x02, 0x3d, 0x32, 0x88, 0x96, 0x3d, 0x47, 0x38, 0xb5, 0xbd,
  0x19, 0x75, 0xbf, 0xbe, 0x93, 0xef, 0x9d, 0xbe, 0x22, 0x45, 0xdb, 0x3e,
  0xd5, 0xb4, 0x57, 0x3d, 0x24, 0x07, 0xf7, 0x3d, 0x03, 0x0c, 0xb0, 0x3e,
  0x03, 0x4c, 0xe9, 0xbd, 0x22, 0xfa, 0x4d, 0xbe, 0xe0, 0x8f, 0x28, 0xbd,
  0xa8, 0xc8, 0x5d, 0xbe, 0xaa, 0x99, 0x2a, 0x3e, 0x49, 0xf1, 0xd4, 0xbd,
  0xaa, 0x99, 0x83, 0x3e, 0xac, 0xbc, 0x08, 0xbe, 0x80, 0x39, 0x8d, 0x3e,
  0xde, 0x4b, 0x7d, 0xbd, 0xcf, 0x73, 0x84, 0x3d, 0xbf, 0xca, 0x23, 0xbe,
  0x54, 0x22, 0xe6, 0xbd, 0xf0, 0x65, 0xa6, 0xbd, 0xb5, 0xd7, 0x1b, 0xbe,
  0xba, 0x4d, 0x4e, 0x3d, 0xbf, 0x36, 0x9b, 0xbe, 0xbe, 0x3a, 0xc0, 0x3d,
  0xfc, 0x06, 0x26, 0xbe, 0x5d, 0xbe, 0xc7, 0xbd, 0x3a, 0x15, 0xa1, 0xbd,
  0x9d, 0x66, 0x23, 0xbe, 0xc1, 0x03, 0xc3, 0xbc, 0x8e, 0x83, 0x61, 0xbe,
  0x8d, 0xf7, 0x9f, 0xbd, 0xf5, 0x47, 0xa1, 0x3c, 0x9f, 0x8d, 0x7f, 0xbe,
  0x61, 0x70, 0x6b, 0xbe, 0x0f, 0x9e, 0x4f, 0x3e, 0x85, 0x01, 0x10, 0x3d,
  0x98, 0xd6, 0x99, 0xbd, 0xe1, 0xd6, 0xa6, 0x3d, 0x4d, 0x7e, 0xba, 0xbd,
  0xf7, 0x4e, 0x39, 0xbd, 0xd6, 0xc3, 0x14, 0x3d, 0x17, 0x40, 0x09, 0xbe,
  0x36, 0xfa, 0x16, 0x3e, 0x54, 0x58, 0x27, 0xbd, 0x03, 0xb9, 0x37, 0xbe,
  0x5a, 0xad, 0x87, 0xbe, 0x04, 0x0d, 0x20, 0xbe, 0xd4, 0x97, 0x23, 0x3e,
  0xb4, 0xd7, 0x15, 0xbd, 0x2f, 0xea, 0x23, 0xbe, 0x97, 0xed, 0xeb, 0xbd,
  0xf5, 0xda, 0x97, 0xbd, 0x4e, 0x3b, 0x9b, 0xbd, 0xcc, 0xb4, 0x2c, 0xbe,
  0xc2, 0x4d, 0x2f, 0xbe, 0x45, 0x22, 0x82, 0xbe, 0xb7, 0x58, 0x0f, 0x3d,
  0xa8, 0x4f, 0xa3, 0xbd, 0xff, 0xdc, 0x6d, 0xbc, 0x06, 0x6a, 0xbd, 0xbb,
  0x06, 0x1b, 0x03, 0xbd, 0x50, 0x0a, 0x20, 0x3e, 0xa7, 0x5c, 0x4a, 0xbd,
  0x7c, 0x06, 0x04, 0xbd, 0x8b, 0x49, 0x19, 0x3d, 0xeb, 0x84, 0xfd, 0xbd,
  0x07, 0x7b, 0x5f, 0x3e, 0xe7, 0x80, 0xfe, 0x3d, 0x5f, 0xf3, 0x10, 0x3d,
  0x9b, 0xd6, 0xca, 0x3a, 0x1a, 0x82, 0x8f, 0xbe, 0x1b, 0x35, 0xa2, 0xbc,
  0x4e, 0x65, 0xa3, 0xbc, 0x01, 0x50, 0x48, 0x3e, 0x8a, 0x82, 0xce, 0x3d,
  0xd2, 0x22, 0xa8, 0xbd, 0x61, 0xf1, 0x4a, 0xbd, 0xbc, 0xad, 0x69, 0x3e,
  0x31, 0x65, 0x9a, 0xbd, 0xa3, 0xd5, 0xff, 0xbd, 0xf9, 0x52, 0x20, 0xbe,
  0xf3, 0x10, 0xbe, 0x3d, 0xa9, 0x0f, 0x41, 0x3e, 0xf3, 0xe2, 0x2b, 0xbe,
  0xa3, 0x25, 0x98, 0x3d, 0x96, 0x6d, 0xa6, 0x3c, 0xa0, 0x4e, 0x7f, 0xbe,
  0x34, 0x17, 0x96, 0xbd, 0xa8, 0x5d, 0x67, 0x3d, 0xa4, 0xc7, 0x68, 0xbd,
  0xba, 0x33, 0x65, 0xbd, 0xfc, 0x97, 0x84, 0xbe, 0x1b, 0x98, 0x52, 0x3e,
  0xd0, 0xa0, 0x10, 0x3e, 0x8b, 0xbb, 0x33, 0xbc, 0x2b, 0x26, 0x89, 0x3d,
  0x67, 0xfe, 0xfe, 0x3c, 0x5e, 0x99, 0xd5, 0xbc, 0xe2, 0xc1, 0x46, 0x3d,
  0x0a, 0xb2, 0xcc, 0xbb, 0x0e, 0x13, 0x0a, 0xbe, 0xa1, 0xd2, 0x25, 0xbd,
  0x50, 0x5b, 0x38, 0xbe, 0x64, 0xec, 0x1c, 0x3c, 0xe5, 0x6a, 0x29, 0x3e,
  0xd4, 0x78, 0x85, 0xbc, 0x54, 0x3b, 0xcb, 0xbd, 0xd7, 0xf5, 0xf2, 0xbd,
  0x20, 0xaa, 0x1c, 0xbe, 0xf3, 0xd1, 0x78, 0xbe, 0x63, 0x17, 0x47, 0x3d,
  0x3e, 0x96, 0xb3, 0x3c, 0x40, 0x02, 0x19, 0xbd, 0xba, 0xd8, 0xf7, 0x3c,
  0x29, 0x06, 0x55, 0x3e, 0xb4, 0x25, 0x5e, 0xbe, 0x3f, 0x2a, 0x6e, 0xbe,
  0x74, 0xb8, 0x7d, 0x3e, 0x5c, 0xcf, 0xc8, 0xbe, 0x10, 0xae, 0x0f, 0xbe,
  0x7b, 0x43, 0x4f, 0xbd, 0x39, 0xd0, 0xaa, 0x3b, 0x00, 0x6c, 0x12, 0xbd,
  0xeb, 0x83, 0xed, 0x3d, 0x7e, 0xcc, 0x58, 0xbe, 0xbf, 0xd2, 0xca, 0xbd,
  0xf8, 0x3e, 0xa8, 0x3d, 0x0b, 0x3b, 0x59, 0xbe, 0x9d, 0x82, 0xd9, 0x3c,
  0xac, 0xfd, 0x54, 0xbe, 0x65, 0x3e, 0x2a, 0xbe, 0xf5, 0x55, 0x2d, 0x3d,
  0x98, 0x50, 0xfb, 0xbd, 0x63, 0x34, 0x03, 0x3e, 0xf9, 0x82, 0x2b, 0xbd,
  0x9f, 0xf4, 0xef, 0xbc, 0xcb, 0x10, 0xb6, 0xbd, 0x1d, 0x3b, 0x50, 0xbd,
  0x22, 0x07, 0x84, 0xbc, 0xcd, 0x38, 0xc4, 0xbd, 0xde, 0x3e, 0x40, 0xbe,
  0x9e, 0x0a, 0x0f, 0x3e, 0x09, 0xe2, 0x29, 0xbe, 0x27, 0xf8, 0xa4, 0xbd,
  0x11, 0x39, 0x22, 0x3d, 0xde, 0x8d, 0x8f, 0xbd, 0x46, 0x2a, 0xe6, 0x3d,
  0x02, 0x3a, 0xb4, 0x3b, 0x81, 0xa4, 0x87, 0xbd, 0x2a, 0xee, 0x19, 0xbe,
  0x56, 0xc3, 0x8b, 0xbc, 0x74, 0x8e, 0x92, 0xbe, 0x14, 0x80, 0x82, 0x3d,
  0x94, 0x2b, 0x31, 0xbe, 0xb3, 0x12, 0x1b, 0x3c, 0xa2, 0x03, 0x9b, 0xbe,
  0x75, 0x55, 0x91, 0x3d, 0xbe, 0x29, 0x47, 0xbe, 0x2c, 0x07, 0x4b, 0xbe,
  0x3c, 0xa9, 0xd8, 0x3d, 0x90, 0x28, 0xb7, 0x3d, 0x53, 0xf1, 0x22, 0xbd,
  0x64, 0xb1, 0x55, 0xbe, 0x47, 0xb8, 0x86, 0xbd, 0x3d, 0x5d, 0x42, 0xbe,
  0x2c, 0x36, 0x0e, 0xbe, 0xb5, 0x60, 0xb3, 0x3c, 0x9e, 0x44, 0x86, 0xbe,
  0x16, 0x71, 0x11, 0xbd, 0x24, 0x44, 0xb7, 0xbd, 0xfe, 0x1c, 0x35, 0xbe,
  0xee, 0x30, 0x95, 0xbd, 0x8e, 0x5a, 0x18, 0xbe, 0x9b, 0x82, 0x4b, 0xbe,
  0x0f, 0xba, 0xcc, 0xbd, 0xac, 0x57, 0x48, 0xbd, 0xa8, 0x28, 0x16, 0xbe,
  0x04, 0x8d, 0x17, 0xbc, 0x0e, 0xe4, 0xad, 0x3d, 0x38, 0xe3, 0xf3, 0xbd,
  0x06, 0x43, 0xfb, 0xbd, 0x57, 0xec, 0x5d, 0xbe, 0xb5, 0xf5, 0xbf, 0xbd,
  0x27, 0x21, 0x48, 0x3c, 0xac, 0x38, 0x5d, 0xbe, 0xca, 0x40, 0xb2, 0x3d,
  0xc8, 0x6b, 0x4b, 0xbe, 0x8c, 0xaa, 0xf8, 0xbd, 0x50, 0x49, 0x18, 0x3e,
  0xe5, 0x7e, 0x74, 0xbd, 0xd6, 0xac, 0xa4, 0xbd, 0x92, 0xda, 0xb7, 0x3d,
  0x89, 0x23, 0xdc, 0x3c, 0x6a, 0x98, 0x4d, 0xbe, 0x52, 0xd2, 0x59, 0xbe,
  0x17, 0xe8, 0x51, 0xbd, 0x97, 0x5b, 0x16, 0x3e, 0xd8, 0xfe, 0xd7, 0x3d,
  0x62, 0x17, 0x2b, 0xbe, 0x43, 0xdd, 0x28, 0xbe, 0x0d, 0x97, 0x9b, 0x3d,
  0x9d, 0xc3, 0xfc, 0x3d, 0xf0, 0x9c, 0x42, 0xbe, 0x57, 0x40, 0x9e, 0x3d,
  0x09, 0x2d, 0x88, 0xbd, 0xdf, 0xb1, 0x1f, 0xbe, 0x2f, 0xa0, 0x89, 0xbc,
  0xe6, 0xaa, 0x14, 0x3e, 0x75, 0xd8, 0x21, 0xbe, 0x79, 0xfc, 0xac, 0x3b,
  0x83, 0x4d, 0x14, 0x3e, 0x98, 0x78, 0x27, 0xbd, 0x63, 0x51, 0xd4, 0xbc,
  0x3b, 0x1f, 0x23, 0xbe, 0x86, 0xa1, 0x2d, 0xbe, 0x29, 0x66, 0x2b, 0xbd,
  0xb6, 0xf6, 0x19, 0xbe, 0x46, 0x16, 0x3b, 0xbe, 0x06, 0x21, 0x2f, 0xbe,
  0x51, 0x1e, 0x50, 0x3c, 0x16, 0xb7, 0x00, 0xbd, 0xf3, 0xb3, 0xaa, 0x3e,
  0xb0, 0xe2, 0xc7, 0x3d, 0x74, 0x23, 0xc5, 0x3d, 0xc5, 0xa2, 0x05, 0x3d,
  0xc0, 0x03, 0xe3, 0x3c, 0x17, 0x95, 0x10, 0x3e, 0x39, 0xd8, 0x42, 0xbe,
  0xda, 0x57, 0x73, 0x3d, 0xa6, 0x84, 0x7e, 0xbd, 0xfa, 0xcc, 0xc0, 0xbe,
  0xd9, 0x58, 0x82, 0xbe, 0xa2, 0x84, 0x38, 0x3e, 0x5e, 0x8e, 0x80, 0x3e,
  0x36, 0xda, 0xf3, 0xbc, 0x56, 0x3c, 0x91, 0xbc, 0x83, 0x78, 0x05, 0x3e,
  0x3f, 0x09, 0x1e, 0x3e, 0xc1, 0xf3, 0x1f, 0x3e, 0xd1, 0x4f, 0x15, 0x3e,
  0x1a, 0x2f, 0xfa, 0xbd, 0x9e, 0xa0, 0x90, 0xbe, 0x0b, 0xd3, 0x0d, 0x3e,
  0x9a, 0xdc, 0x84, 0x3c, 0x98, 0x9f, 0xcb, 0xbd, 0xc0, 0x5a, 0x2e, 0xbe,
  0x5f, 0x7c, 0x87, 0xbd, 0x51, 0x18, 0x8a, 0x3d, 0x10, 0xd6, 0x81, 0xbd,
  0x03, 0x64, 0xb1, 0x3d, 0x9e, 0x49, 0x3a, 0x3e, 0xa5, 0xaa, 0xc7, 0xbd,
  0x9d, 0xd3, 0x44, 0xbe, 0xb0, 0x94, 0x37, 0x3e, 0x48, 0x7a, 0xbc, 0x3c,
  0x0a, 0x95, 0xf9, 0x3d, 0xfc, 0xfb, 0xbc, 0xbe, 0x72, 0x84, 0x4c, 0xbe,
  0x7d, 0xef, 0xb0, 0x3e, 0x55, 0x88, 0xb0, 0xbd, 0x45, 0x3d, 0xf4, 0x3c,
  0x6d, 0x64, 0x1d, 0x3e, 0xa4, 0x77, 0x01, 0xbe, 0xe8, 0x06, 0x93, 0xbe,
  0xb6, 0x8d, 0x1a, 0x3c, 0x64, 0x9b, 0xfd, 0xbd, 0x6e, 0xdd, 0xa1, 0xbd,
  0xdd, 0x2c, 0x61, 0xbd, 0xef, 0x5f, 0xfe, 0x3d, 0x81, 0x94, 0x7e, 0x3d,
  0x6f, 0xa5, 0x90, 0x3d, 0x2d, 0xe8, 0x4c, 0xbd, 0x2d, 0x9c, 0x81, 0x3d,
  0x95, 0xa6, 0x86, 0x3d, 0xbd, 0x5b, 0x98, 0x3e, 0x1d, 0x8e, 0x19, 0xbe,
  0xbe, 0xc1, 0xa4, 0x3d, 0x00, 0xfd, 0xac, 0x3e, 0x4a, 0x65, 0xf0, 0x3c,
  0x53, 0xe4, 0xd6, 0xbc, 0x7c, 0x69, 0xf3, 0xbd, 0xcd, 0xa8, 0x65, 0x3d,
  0x9f, 0xc7, 0xb2, 0x3d, 0x83, 0x19, 0x4c, 0x3c, 0x8e, 0x96, 0xd5, 0xbd,
  0x0d, 0x59, 0x3b, 0xbe, 0x45, 0xdb, 0x98, 0xbd, 0xa7, 0xe2, 0xbf, 0x3c,
  0xda, 0x3c, 0x2a, 0x3e, 0xef, 0x0f, 0x2a, 0x3e, 0x63, 0x9c, 0xd3, 0xba,
  0x23, 0x9c, 0x3a, 0xbd, 0x9c, 0x73, 0x33, 0xbe, 0x56, 0x0b, 0x86, 0xbe,
  0x36, 0x0f, 0x00, 0x3c, 0x64, 0x1c, 0xd7, 0xbc, 0x41, 0xb1, 0x05, 0xbc,
  0x28, 0xd7, 0x6e, 0xbd, 0xcb, 0x4b, 0xbb, 0xbb, 0xc9, 0x97, 0x86, 0x3d,
  0xbc, 0x32, 0x2a, 0xbe, 0xce, 0x39, 0x94, 0xbe, 0x57, 0xf6, 0x35, 0xba,
  0xea, 0xa7, 0x7c, 0xbe, 0x24, 0xd7, 0xdb, 0xbd, 0x6c, 0x3d, 0x23, 0xbe,
  0x17, 0x27, 0x12, 0x3e, 0xb8, 0xf1, 0x93, 0x3d, 0xe0, 0xad, 0xa7, 0xbd,
  0x32, 0x92, 0xc8, 0xbd, 0xa9, 0x42, 0x31, 0x3c, 0x29, 0x1c, 0xbf, 0xbd,
  0xb9, 0xee, 0xa5, 0x3d, 0x31, 0x1c, 0x77, 0xbd, 0xf7, 0x0b, 0xff, 0x3c,
  0xad, 0xff, 0x08, 0x3d, 0x80, 0x30, 0xbf, 0x3d, 0x53, 0x92, 0xca, 0x3c,
  0x5c, 0x9e, 0x06, 0x3e, 0xeb, 0x47, 0x46, 0xbe, 0xd3, 0xa0, 0xc9, 0xbd,
  0x72, 0x38, 0xe7, 0xbd, 0x5d, 0xd6, 0x82, 0x3e, 0x61, 0x0a, 0x0f, 0xbe,
  0x26, 0x66, 0x54, 0xbd, 0x17, 0x1c, 0x33, 0x3e, 0xa3, 0x7e, 0x17, 0xbd,
  0x5d, 0xa9, 0xfe, 0xbd, 0xae, 0x5d, 0xf4, 0x3d, 0xb0, 0xae, 0x48, 0x3d,
  0x6d, 0x21, 0xd3, 0xbd, 0x8c, 0x54, 0x6f, 0xbd, 0x01, 0xc2, 0x15, 0x3d,
  0xe7, 0xbc, 0xc5, 0x3c, 0xe9, 0x0f, 0x97, 0xbc, 0x9c, 0x3d, 0xb1, 0x3d,
  0x0a, 0x65, 0x16, 0xbd, 0x3e, 0x43, 0x35, 0x3c, 0x46, 0x4d, 0xc3, 0x3e,
  0x53, 0x2f, 0xc9, 0x3d, 0xd0, 0x03, 0xb4, 0xbd, 0xce, 0x80, 0x99, 0x3e,
  0x1e, 0x7c, 0x40, 0xbd, 0x20, 0xaf, 0xa9, 0xbc, 0xa1, 0x8c, 0x63, 0xbe,
  0x12, 0xc5, 0xdb, 0x3d, 0xf2, 0xae, 0x00, 0x3e, 0x79, 0x41, 0x22, 0xbe,
  0xf0, 0x79, 0x0c, 0xbe, 0x1c, 0x11, 0x95, 0x3c, 0x8b, 0xd7, 0x4f, 0x3e,
  0x17, 0xb1, 0xec, 0xbd, 0x85, 0x03, 0xdd, 0xbc, 0xf4, 0x4d, 0xdc, 0xbb,
  0x99, 0x0c, 0xbc, 0x3d, 0xff, 0x52, 0x20, 0xbe, 0xb5, 0xde, 0x52, 0xbe,
  0x37, 0xa2, 0x32, 0xbd, 0x04, 0xa8, 0x46, 0xbd, 0xba, 0x01, 0xcc, 0xbd,
  0x47, 0xa7, 0x57, 0xbe, 0x3d, 0x73, 0x35, 0xbe, 0xd6, 0x52, 0x81, 0xbd,
  0xa5, 0xc6, 0x2d, 0x3c, 0x22, 0xd0, 0x91, 0xbd, 0xe7, 0xbc, 0xbc, 0xbd,
  0xb9, 0x62, 0xdd, 0xbd, 0x8d, 0x86, 0x81, 0x3d, 0xe9, 0xd4, 0xea, 0xbd,
  0x7d, 0xf1, 0xa5, 0xbd, 0x58, 0xa8, 0xf7, 0xbd, 0x5a, 0x5b, 0xf9, 0xbd,
  0x65, 0x04, 0xd5, 0x3d, 0xf2, 0x59, 0x57, 0x3d, 0xc4, 0xf5, 0xc5, 0xbd,
  0xab, 0x0a, 0xde, 0x3d, 0x31, 0x48, 0xcd, 0x3d, 0xd0, 0x25, 0xa8, 0xbd,
  0x97, 0xa7, 0x88, 0xbe, 0x57, 0x7c, 0x1f, 0xbe, 0xb6, 0x9a, 0xa4, 0x3d,
  0x9d, 0x8e, 0x79, 0xbe, 0x7f, 0xea, 0x16, 0xbe, 0x48, 0x20, 0x4c, 0xbe,
  0xc7, 0xec, 0xf6, 0xbd, 0x1c, 0x99, 0x90, 0x3d, 0xbc, 0x6a, 0x96, 0xbd,
  0xda, 0x45, 0xb3, 0xbd, 0xb9, 0x5d, 0x21, 0xbe, 0x0f, 0x0c, 0x81, 0x3d,
  0xa1, 0x12, 0x3b, 0xbe, 0x9a, 0x14, 0x08, 0x3e, 0xef, 0xa6, 0x2a, 0x3e,
  0xb5, 0x43, 0x80, 0x3d, 0x06, 0x1b, 0xab, 0x3d, 0x97, 0x46, 0x52, 0x3e,
  0x64, 0x96, 0x76, 0x3d, 0x81, 0xc9, 0x70, 0xbe, 0xec, 0x78, 0x22, 0x3e,
  0x5e, 0x7d, 0x66, 0xbd, 0x8a, 0x17, 0xaf, 0xbd, 0x73, 0x1b, 0xeb, 0x3d,
  0x3e, 0x9c, 0x81, 0xbd, 0x74, 0xf1, 0x33, 0xbe, 0x72, 0x09, 0x78, 0xbe,
  0xc2, 0xea, 0x67, 0x3c, 0x35, 0x35, 0x9b, 0xbd, 0xad, 0x45, 0x5a, 0xbe,
  0x50, 0x8c, 0x58, 0x3d, 0x15, 0xad, 0xea, 0x3c, 0x35, 0x32, 0x1d, 0xbe,
  0xa6, 0xb5, 0x8d, 0x3d, 0x11, 0x63, 0x94, 0xbb, 0x2f, 0xed, 0xb0, 0xbe,
  0xbd, 0xa5, 0x98, 0x3d, 0x4c, 0x67, 0xa2, 0xbd, 0xe6, 0x81, 0x0d, 0x3d,
  0x7c, 0xad, 0x16, 0xbe, 0x41, 0xa1, 0x12, 0x3e, 0x6d, 0xbb, 0x85, 0xbd,
  0xc6, 0x46, 0x60, 0xbe, 0xab, 0x61, 0x34, 0xbe, 0x2d, 0x25, 0x5c, 0xbd,
  0x65, 0xf4, 0x23, 0xbe, 0xe8, 0x6e, 0xd7, 0xbd, 0x1f, 0x64, 0xc4, 0x3d,
  0xac, 0x5f, 0xff, 0xbc, 0x1d, 0x54, 0x6d, 0xbe, 0x1c, 0x82, 0x0a, 0xbe,
  0xcd, 0xf6, 0xb2, 0xbe, 0x76, 0xc9, 0x0f, 0x3e, 0xe0, 0x56, 0x1e, 0x3e,
  0x6a, 0xf1, 0x3f, 0xbe, 0x8e, 0x12, 0xe7, 0xbd, 0xd9, 0xd9, 0xe8, 0xbd,
  0x51, 0x4c, 0x17, 0x3e, 0x47, 0xc1, 0xc3, 0x3d, 0x97, 0x47, 0x0d, 0xbc,
  0x1f, 0x41, 0x72, 0x3e, 0x70, 0xcb, 0x4d, 0x3d, 0x1b, 0x9b, 0x98, 0xbc,
  0xa6, 0x08, 0xff, 0x3c, 0x9c, 0x34, 0xca, 0x3e, 0xb1, 0xe8, 0x11, 0xbe,
  0x4c, 0x17, 0x38, 0x3e, 0x41, 0xa7, 0x71, 0xbe, 0x0c, 0x9e, 0x34, 0x3e,
  0x25, 0x61, 0xb0, 0xbd, 0x1e, 0xb8, 0xfa, 0xbd, 0xed, 0xdf, 0xf6, 0xbd,
  0xf9, 0x6b, 0x83, 0xbe, 0x7e, 0x63, 0xdb, 0x3d, 0xe7, 0x68, 0x87, 0xbd,
  0xaf, 0x11, 0xd0, 0xbd, 0x1a, 0xe7, 0xa6, 0xbe, 0x81, 0xee, 0xa9, 0x3c,
  0x39, 0x5d, 0x76, 0xbe, 0x0f, 0xc0, 0xd8, 0x3d, 0x90, 0x80, 0x9e, 0xbc,
  0x2b, 0x29, 0xa6, 0x3d, 0x88, 0x4e, 0x42, 0x3d, 0xea, 0x49, 0x8c, 0x3c,
  0x7e, 0x51, 0x84, 0xbe, 0x47, 0xae, 0xa7, 0x3c, 0xd6, 0xd6, 0x4b, 0x3e,
  0x1b, 0x95, 0x7b, 0x3e, 0x0d, 0xeb, 0xae, 0xbd, 0xda, 0xe3, 0x5c, 0x3c,
  0xb5, 0xc0, 0xe9, 0xbd, 0x85, 0x31, 0x15, 0xbd, 0x83, 0x4f, 0xb8, 0xbd,
  0xd1, 0x66, 0x3e, 0xbd, 0x79, 0xb3, 0xca, 0xbd, 0x7e, 0x50, 0x07, 0x3d,
  0xa4, 0xd7, 0xf2, 0x3d, 0x4b, 0x2d, 0xad, 0x3d, 0x5f, 0xd7, 0x7e, 0xbd,
  0xab, 0x65, 0xce, 0x3d, 0x64, 0xcc, 0x33, 0xbe, 0xbe, 0x4c, 0xf3, 0x3d,
  0x64, 0x51, 0x95, 0x3e, 0xa8, 0x4c, 0x4c, 0x3e, 0x8c, 0x76, 0x84, 0xbd,
  0xc2, 0x5d, 0x60, 0x3e, 0x5d, 0x1c, 0xe6, 0xbd, 0x37, 0xc7, 0x3b, 0xbc,
  0x6c, 0x2a, 0xd4, 0xbd, 0x53, 0x5a, 0x4b, 0x3e, 0xea, 0xc4, 0x0d, 0x3e,
  0x22, 0x8e, 0x95, 0xbd, 0x9d, 0x7e, 0x0e, 0xbe, 0x31, 0x4e, 0x52, 0x3d,
  0xf2, 0x2f, 0x26, 0x3e, 0xc8, 0x97, 0xbf, 0xba, 0xb1, 0x82, 0x4b, 0x3d,
  0x70, 0xe3, 0xe6, 0xbb, 0x4d, 0x3a, 0x90, 0x3e, 0x3b, 0x86, 0x49, 0x3c,
  0x66, 0x26, 0x28, 0xbe, 0xc8, 0x42, 0x1d, 0x3e, 0x41, 0x33, 0xbd, 0xbd,
  0xec, 0x8d, 0x86, 0x3d, 0x9a, 0xe3, 0x55, 0xbe, 0x26, 0xb9, 0xbf, 0xbb,
  0xb9, 0x00, 0x27, 0xbe, 0x6f, 0x14, 0x01, 0x3e, 0xb2, 0x05, 0x88, 0xbe,
  0x01, 0x70, 0x91, 0x3d, 0xca, 0xd9, 0x3f, 0xbd, 0x32, 0x66, 0x94, 0x3b,
  0xef, 0xb2, 0x5b, 0xbd, 0x04, 0x8d, 0x48, 0xbd, 0xa5, 0x32, 0xa4, 0x3d,
  0xe9, 0x23, 0x9e, 0xbd, 0x71, 0x9d, 0x4f, 0x3d, 0x60, 0x3e, 0xad, 0xbd,
  0x01, 0x01, 0xc3, 0x3c, 0x34, 0x5c, 0xec, 0xbd, 0x61, 0x4e, 0x52, 0xbe,
  0x51, 0x03, 0x3e, 0x3e, 0x45, 0xdf, 0x8d, 0xbd, 0xf1, 0x82, 0xd1, 0xbd,
  0x06, 0xbc, 0xb2, 0x3c, 0xba, 0x0f, 0xca, 0xbd, 0xfd, 0x6c, 0x42, 0x3d,
  0x90, 0xce, 0x77, 0x3d, 0xd4, 0xb9, 0x44, 0x3c, 0xc6, 0x7a, 0x13, 0xbe,
  0x42, 0x7a, 0x74, 0x3d, 0xa5, 0xdc, 0x97, 0x3b, 0x76, 0xb8, 0x0f, 0x3d,
  0x30, 0xbd, 0x33, 0x3e, 0xe0, 0xc9, 0x2b, 0xbd, 0x2b, 0x73, 0xc5, 0xbd,
  0x24, 0x79, 0xc1, 0xbd, 0xfb, 0x6e, 0x66, 0x3d, 0x76, 0x6e, 0x07, 0xbd,
  0xd6, 0xbc, 0x33, 0xbc, 0xce, 0x58, 0x8d, 0x3d, 0x32, 0x05, 0x4f, 0x3e,
  0xd8, 0x88, 0x62, 0x3d, 0xe0, 0xab, 0x8a, 0xbd, 0x5f, 0xa0, 0xb8, 0x3c,
  0x23, 0x71, 0x71, 0xbc, 0x38, 0x41, 0xb8, 0x3e, 0x60, 0x56, 0xfb, 0x3c,
  0x07, 0x81, 0xfd, 0xbc, 0xe4, 0x2d, 0xd9, 0x3c, 0x7b, 0x11, 0x81, 0x3d,
  0x20, 0x53, 0xdf, 0x3c, 0x27, 0x78, 0xda, 0xbd, 0xee, 0x64, 0x14, 0x3e,
  0x69, 0xa4, 0x8d, 0xbe, 0x8c, 0x19, 0x98, 0xbc, 0xff, 0x28, 0x94, 0x3d,
  0x89, 0x93, 0xcd, 0xbc, 0x09, 0x82, 0xba, 0xbc, 0xd3, 0x52, 0x94, 0xbd,
  0x86, 0x29, 0xa1, 0x3a, 0x53, 0xfa, 0x98, 0xbe, 0x34, 0xf4, 0xd6, 0x3d,
  0x6e, 0x9b, 0x91, 0x3e, 0x69, 0xa5, 0x66, 0xbd, 0x63, 0x3c, 0x8b, 0x3e,
  0x4a, 0xab, 0xd4, 0xbc, 0x0c, 0x9f, 0x0e, 0xbe, 0x27, 0x1f, 0x87, 0xbe,
  0xc8, 0x6d, 0x28, 0x3e, 0x1f, 0x86, 0x4a, 0x3e, 0x25, 0x02, 0xfa, 0xbc,
  0x49, 0x44, 0x84, 0xbe, 0xbd, 0x9a, 0x06, 0xbe, 0x69, 0x2b, 0xd5, 0xbc,
  0xe6, 0x94, 0x1d, 0xbc, 0xa0, 0xfa, 0x5f, 0xbd, 0x17, 0x3c, 0x78, 0xbe,
  0xfe, 0x90, 0x84, 0x3e, 0xc1, 0x34, 0x1f, 0x3e, 0x94, 0xed, 0x1a, 0x3e,
  0xda, 0xf2, 0x17, 0x3e, 0xed, 0xe4, 0x04, 0xbe, 0xdb, 0xf4, 0x8c, 0xbd,
  0x56, 0x40, 0x15, 0xbe, 0xcc, 0x7f, 0x6f, 0xbd, 0x7a, 0x87, 0x10, 0xbe,
  0x64, 0x7c, 0x94, 0x3d, 0x93, 0x62, 0x64, 0x3e, 0x53, 0x4d, 0xdd, 0x3d,
  0xa3, 0x50, 0x35, 0x3e, 0xcc, 0x0d, 0x1d, 0xbe, 0x35, 0x0a, 0xf6, 0x3d,
  0xe0, 0xe5, 0x5f, 0x3c, 0x2c, 0x32, 0xd2, 0x3e, 0x3d, 0x14, 0xfe, 0x3d,
  0xf7, 0x76, 0x8c, 0x3b, 0xfa, 0xa3, 0x4d, 0x3d, 0x9f, 0x61, 0xcc, 0xbd,
  0xc9, 0x60, 0xf9, 0xbd, 0xf0, 0xb6, 0xce, 0xbc, 0xce, 0xee, 0x4f, 0x3d,
  0xa9, 0x8d, 0x91, 0xbc, 0xef, 0xf4, 0x2d, 0x3e, 0xa2, 0x8a, 0xbc, 0xbc,
  0xba, 0xd8, 0x3e, 0x3c, 0xa3, 0xdf, 0x3d, 0x3e, 0xde, 0xbb, 0x9b, 0xbd,
  0x9b, 0x57, 0x33, 0xbd, 0xf9, 0x1a, 0x02, 0xbe, 0x4d, 0x8b, 0x39, 0x3e,
  0xa3, 0x9d, 0x36, 0xbe, 0x1b, 0x78, 0x32, 0xbe, 0x1d, 0xe9, 0xdd, 0xbc,
  0x0c, 0xd2, 0xf5, 0xbc, 0xec, 0x65, 0x3b, 0xbe, 0x9a, 0xc2, 0xd6, 0xbd,
  0xf0, 0x32, 0xa2, 0x3d, 0x24, 0x12, 0x42, 0xbc, 0x22, 0x28, 0x65, 0x3e,
  0xbd, 0x18, 0x1b, 0xbe, 0x24, 0x1a, 0x19, 0xbe, 0x9a, 0x0c, 0x09, 0x3d,
  0x5c, 0xac, 0x90, 0x3d, 0x6a, 0xa9, 0x51, 0xbd, 0x99, 0x7e, 0x8f, 0x3d,
  0xfd, 0x26, 0x2c, 0xbd, 0x0d, 0x16, 0x94, 0xbc, 0xf2, 0x3e, 0x8d, 0x3d,
  0xdc, 0x9f, 0x93, 0x3d, 0xb9, 0x5a, 0xb0, 0xbd, 0xdc, 0x79, 0x46, 0x3e,
  0x3b, 0xe9, 0x8a, 0xbe, 0x4f, 0x6c, 0x1c, 0xbe, 0xf5, 0xa0, 0xa2, 0x3d,
  0x05, 0x1d, 0x47, 0x3e, 0x9e, 0x9a, 0xb4, 0x3c, 0x16, 0xc9, 0xb1, 0x3d,
  0xd7, 0x36, 0xc1, 0x3d, 0xaa, 0xdf, 0xfd, 0x3d, 0xa7, 0x3c, 0x8c, 0x3d,
  0xe3, 0x20, 0x42, 0x3e, 0xba, 0xd0, 0x1a, 0x3e, 0x37, 0xf7, 0x14, 0xbd,
  0x00, 0x21, 0xa3, 0xbd, 0xe3, 0x3d, 0xab, 0x3d, 0x23, 0x24, 0xdc, 0x3b,
  0x60, 0x04, 0x15, 0x3c, 0xda, 0x5e, 0x5e, 0xbe, 0x41, 0x90, 0x60, 0x3c,
  0xea, 0x73, 0x4c, 0xbe, 0x28, 0x93, 0x81, 0x3e, 0x16, 0x93, 0xad, 0xbd,
  0xee, 0xc3, 0xd0, 0x3d, 0x52, 0x77, 0x79, 0x3d, 0x24, 0xe4, 0xae, 0xbd,
  0xc7, 0x1e, 0x58, 0x3e, 0x3a, 0xa5, 0x43, 0x3e, 0xc6, 0xbd, 0x46, 0xbc,
  0xe5, 0xd5, 0x84, 0x3d, 0x10, 0x08, 0xe4, 0xbd, 0xea, 0x85, 0x8a, 0x3c,
  0x4f, 0x23, 0x8a, 0xbd, 0x61, 0xca, 0x1e, 0xbe, 0x51, 0x66, 0x04, 0xbd,
  0xb5, 0x58, 0x4a, 0x3e, 0x8d, 0xb1, 0xe8, 0x3d, 0x0d, 0x28, 0xf3, 0x3c,
  0x8a, 0xa4, 0x0a, 0x3e, 0x39, 0xe5, 0x10, 0x3e, 0x65, 0x5c, 0x0b, 0x3e,
  0xa2, 0x75, 0x55, 0xbc, 0x9c, 0x24, 0x75, 0x3b, 0xf7, 0x7a, 0x81, 0xbe,
  0x16, 0x08, 0x04, 0x3e, 0x70, 0x47, 0x5f, 0x3e, 0xb5, 0x60, 0x1d, 0x3d,
  0x50, 0x7b, 0x09, 0x3d, 0xa4, 0x12, 0x04, 0xbe, 0x42, 0xc3, 0x68, 0xbc,
  0x86, 0xba, 0x80, 0xbe, 0xa5, 0x56, 0x99, 0x3d, 0x44, 0x3c, 0xb6, 0x3d,
  0xa9, 0xf6, 0x3e, 0xbc, 0x77, 0xc6, 0x30, 0x3c, 0x0b, 0xcf, 0xef, 0x3c,
  0xb6, 0x17, 0x3d, 0x3d, 0x12, 0x3b, 0x2c, 0xbe, 0x7a, 0x37, 0xba, 0xbd,
  0x3e, 0x4f, 0x23, 0xbe, 0x0e, 0xe6, 0x89, 0xbe, 0xeb, 0x40, 0x1a, 0x3d,
  0x06, 0x80, 0xe9, 0x3d, 0x0c, 0x1e, 0x14, 0x3d, 0x3d, 0x04, 0xe9, 0xbd,
  0x45, 0x9e, 0x9b, 0xbe, 0x5b, 0xbc, 0x87, 0xbe, 0x42, 0x28, 0x98, 0xbe,
  0x05, 0x5b, 0xdf, 0xbd, 0xa7, 0x0b, 0xa6, 0x3d, 0x7d, 0xf2, 0xa0, 0xbd,
  0x40, 0xe5, 0x61, 0x3b, 0x17, 0xdf, 0x4a, 0xbe, 0x7f, 0x1c, 0xa2, 0x3d,
  0x1e, 0x57, 0x12, 0x3e, 0x77, 0x5f, 0xa0, 0x3c, 0x8f, 0x3b, 0x06, 0xbe,
  0x8d, 0xf0, 0x48, 0xbe, 0xf8, 0xc0, 0x30, 0xbe, 0x47, 0x53, 0x3c, 0xbe,
  0xcb, 0xe2, 0x79, 0xbe, 0x13, 0xd8, 0x6d, 0xbe, 0xd0, 0x4e, 0xb0, 0xbd,
  0xcd, 0x7b, 0x4f, 0xbe, 0x81, 0x42, 0x3f, 0xbe, 0x91, 0x30, 0x06, 0x3b,
  0x50, 0x3b, 0xff, 0x3d, 0xe8, 0x41, 0x18, 0xbd, 0x24, 0x9f, 0xb3, 0x3c,
  0x5b, 0xd5, 0x02, 0xbd, 0xc3, 0x57, 0xcc, 0xbc, 0xcd, 0x21, 0xe0, 0xbd,
  0x27, 0x7c, 0xa1, 0x3d, 0x6c, 0x7a, 0x0a, 0x3d, 0x8d, 0x72, 0xce, 0xbd,
  0xd4, 0xed, 0xd7, 0x3d, 0x9c, 0x76, 0x61, 0x3d, 0x23, 0x58, 0xdd, 0xbc,
  0x7f, 0x64, 0x38, 0xbd, 0x2e, 0x1a, 0xbf, 0x3d, 0xbf, 0x88, 0xe3, 0xbd,
  0x5e, 0x0d, 0xaa, 0x3d, 0x8c, 0xc8, 0x0c, 0xbe, 0xc8, 0x1b, 0x2d, 0xbe,
  0x77, 0xdd, 0xae, 0xbd, 0x20, 0x17, 0x18, 0xbd, 0x03, 0x6d, 0x80, 0x3d,
  0xcd, 0xf4, 0xc4, 0x3d, 0xe0, 0x70, 0x12, 0xbd, 0x7b, 0xbc, 0xb3, 0x3d,
  0xec, 0x60, 0x8c, 0x3d, 0x5f, 0xf7, 0xc4, 0xbc, 0x9a, 0xc3, 0x2b, 0xbe,
  0x25, 0x97, 0x09, 0x3d, 0x2a, 0x6b, 0x4a, 0xbe, 0xce, 0x69, 0xa1, 0x3d,
  0xca, 0xf1, 0x51, 0xbe, 0xf2, 0xbb, 0xbd, 0x3d, 0x00, 0x72, 0x84, 0xbd,
  0x35, 0x71, 0x64, 0xbe, 0x83, 0xba, 0x02, 0x3e, 0xa1, 0x95, 0x88, 0x3d,
  0xad, 0x44, 0xa3, 0xbc, 0x87, 0x80, 0x00, 0x3e, 0xd2, 0x43, 0x93, 0xbd,
  0x86, 0x90, 0x81, 0xbd, 0xf8, 0x73, 0x09, 0x3d, 0x0f, 0x44, 0x80, 0x3d,
  0x48, 0x71, 0xa7, 0xbd, 0x39, 0x27, 0x17, 0xbe, 0x04, 0x33, 0x77, 0xbe,
  0xa6, 0x45, 0xdc, 0x3d, 0xa1, 0xb9, 0x3b, 0xbd, 0x46, 0xcd, 0xfb, 0x3c,
  0xae, 0x83, 0x0f, 0xbe, 0x21, 0x8f, 0x5c, 0xbe, 0xaa, 0xde, 0x25, 0x3e,
  0x16, 0xba, 0xf3, 0xbd, 0xf5, 0x6e, 0x19, 0x3e, 0x9c, 0x55, 0x18, 0xbe,
  0xf3, 0x87, 0x20, 0x3d, 0x8c, 0x53, 0xcd, 0x3d, 0x3f, 0xfe, 0x90, 0x3c,
  0x7e, 0x1d, 0x4b, 0xbe, 0xe3, 0x21, 0x33, 0xbe, 0x26, 0x31, 0x77, 0x3d,
  0xa6, 0x6e, 0x76, 0xbd, 0xde, 0xb8, 0x57, 0xbe, 0x62, 0x0a, 0x08, 0x3e,
  0x67, 0x6f, 0x7e, 0xbc, 0x5f, 0xed, 0x41, 0x3c, 0xb2, 0x26, 0xbe, 0xbc,
  0xa0, 0xb9, 0xf0, 0xbd, 0x4a, 0x81, 0xb8, 0xbd, 0x3d, 0x3d, 0x4e, 0x3d,
  0x4e, 0xaf, 0x1d, 0x3d, 0xf5, 0x5a, 0xad, 0xbd, 0x69, 0x26, 0x85, 0x3d,
  0x1c, 0xfb, 0xc0, 0xbd, 0x0b, 0xb1, 0xc8, 0x3d, 0xff, 0xb5, 0x3a, 0xbe,
  0x33, 0xa2, 0x63, 0x3d, 0x5c, 0xfa, 0xbc, 0xbd, 0x58, 0x07, 0x84, 0xbe,
  0xb3, 0xf5, 0x01, 0x3f, 0xe3, 0xe3, 0x7b, 0xbd, 0x12, 0xbd, 0xa7, 0x3e,
  0x2b, 0xf3, 0x72, 0xbe, 0xff, 0xcb, 0x32, 0xbe, 0x4e, 0x26, 0xe2, 0xbd,
  0xfe, 0xba, 0xfb, 0x3c, 0x73, 0xb0, 0x02, 0x3e, 0x39, 0x7f, 0xc4, 0xbe,
  0x91, 0x0d, 0x90, 0xbd, 0x0f, 0xa0, 0x91, 0x3d, 0x3c, 0xba, 0x01, 0x3e,
  0xa4, 0x88, 0xfa, 0x3d, 0x41, 0x9a, 0xee, 0x3d, 0x27, 0x1f, 0xdb, 0x3d,
  0x26, 0x15, 0x1a, 0x3e, 0xca, 0xdc, 0x89, 0x3e, 0x20, 0xbd, 0xf4, 0xbd,
  0xe8, 0x8e, 0x8e, 0x3e, 0x4f, 0x73, 0xa2, 0xbc, 0xf2, 0x9e, 0xab, 0x3e,
  0xd0, 0xdd, 0x03, 0xbe, 0x9d, 0x6b, 0x0f, 0xbe, 0xb2, 0x2d, 0x04, 0x3f,
  0x6d, 0x7a, 0xe2, 0xbe, 0xe7, 0x02, 0x70, 0xbd, 0xa3, 0xd0, 0x0f, 0xbe,
  0xc1, 0x22, 0xc0, 0xbd, 0x27, 0x97, 0x89, 0xbd, 0xc3, 0x18, 0x10, 0x3e,
  0xc8, 0x14, 0xb8, 0x3d, 0x24, 0x35, 0x13, 0xbd, 0x72, 0x06, 0x8f, 0x3e,
  0x85, 0x95, 0x97, 0x3c, 0x38, 0xef, 0x90, 0x3e, 0xe7, 0xc2, 0x1b, 0xbe,
  0xf9, 0x42, 0x29, 0x3f, 0x21, 0x99, 0x0b, 0xbe, 0x3b, 0x7c, 0xee, 0x3d,
  0x0d, 0x4b, 0x0d, 0x3f, 0x46, 0x35, 0x55, 0xbd, 0xc9, 0x22, 0x24, 0x3e,
  0x5d, 0x50, 0x3c, 0xbe, 0x26, 0xfb, 0x08, 0xbb, 0x30, 0x1f, 0x2d, 0xbc,
  0x39, 0x51, 0x11, 0x3e, 0x86, 0xb9, 0x54, 0x3e, 0xc0, 0xd5, 0x15, 0x3c,
  0x24, 0x45, 0x1f, 0x3e, 0x89, 0x8f, 0xae, 0x3d, 0xf2, 0x9c, 0xc1, 0x3d,
  0xdb, 0xc4, 0x9f, 0x3d, 0xca, 0x62, 0xbe, 0x3e, 0xc4, 0xdd, 0xcd, 0x3d,
  0xca, 0x3f, 0x5b, 0x3d, 0x59, 0xab, 0xe1, 0x3e, 0x49, 0x87, 0xd3, 0xbd,
  0xb3, 0x2a, 0x6b, 0xbe, 0x07, 0x19, 0x5c, 0xbe, 0x99, 0x9d, 0x66, 0x3d,
  0x4d, 0xba, 0x5d, 0x3d, 0xd3, 0xc1, 0x17, 0xbe, 0x2b, 0xfe, 0xe0, 0x3d,
  0x53, 0x45, 0xd0, 0xbd, 0xf7, 0x56, 0xa9, 0x3e, 0x25, 0x41, 0x05, 0xbe,
  0x76, 0x31, 0xe2, 0x3d, 0x09, 0xa0, 0x42, 0x3d, 0x22, 0x93, 0xc7, 0x3e,
  0xfc, 0xbe, 0x1b, 0x3d, 0x47, 0x24, 0xf4, 0x3d, 0x36, 0x04, 0x0b, 0x3f,
  0xd3, 0x11, 0xa0, 0xbc, 0x82, 0x64, 0x19, 0xbe, 0x49, 0xdf, 0xc4, 0xbd,
  0x82, 0x29, 0x4b, 0xbe, 0xff, 0x5b, 0x5a, 0xbd, 0xca, 0x76, 0x17, 0xbe,
  0xb4, 0xf2, 0xf1, 0x3d, 0xd6, 0xa8, 0xdf, 0xbd, 0x7d, 0x17, 0x7a, 0x3e,
  0x79, 0x44, 0x94, 0x3d, 0x9f, 0x60, 0x70, 0x3e, 0xb2, 0xc0, 0x2c, 0xbe,
  0x0b, 0x78, 0xfc, 0x3e, 0xc5, 0xf4, 0x82, 0x3d, 0xc0, 0x16, 0x2b, 0x3d,
  0x53, 0xbc, 0x74, 0x3e, 0x5e, 0x62, 0x56, 0xbe, 0x55, 0xd3, 0xc5, 0xbd,
  0x75, 0xc0, 0x1a, 0xbe, 0x7d, 0xd5, 0xf7, 0xba, 0x22, 0xd6, 0x9b, 0xbd,
  0xa8, 0xbf, 0x79, 0x3c, 0xff, 0x54, 0x84, 0x3e, 0x1a, 0x43, 0x0f, 0xbe,
  0x13, 0x0b, 0x09, 0x3e, 0x29, 0x6b, 0x85, 0x3e, 0xed, 0x19, 0x8c, 0x3e,
  0x70, 0x8d, 0x27, 0x3c, 0x48, 0x67, 0xaf, 0x3e, 0x63, 0xd1, 0x3a, 0x3e,
  0x04, 0xe1, 0xba, 0xbd, 0xd8, 0x2d, 0x45, 0x3e, 0xc5, 0x1f, 0x0d, 0xbf,
  0xbc, 0x78, 0xb1, 0xbe, 0x96, 0xa1, 0xa9, 0xbd, 0x9c, 0x9b, 0x0d, 0xbd,
  0xc6, 0x15, 0xd0, 0xbd, 0x6c, 0xda, 0x85, 0x3d, 0xf3, 0xa8, 0x2d, 0x3e,
  0x87, 0x01, 0x85, 0xbe, 0x5c, 0xd1, 0x1d, 0x3f, 0x7a, 0x6b, 0x19, 0xbe,
  0xd0, 0xe1, 0xec, 0x38, 0x78, 0x8a, 0x60, 0xbe, 0x18, 0x33, 0xcd, 0x3e,
  0x7c, 0x8f, 0xbb, 0xbd, 0x58, 0xc4, 0xaa, 0x3e, 0x04, 0x05, 0xc3, 0x3e,
  0xe2, 0xa7, 0xc3, 0xbd, 0x3e, 0x09, 0x8d, 0xbe, 0xe3, 0xeb, 0xa4, 0x3d,
  0xfb, 0x68, 0x6d, 0xbe, 0xaf, 0x02, 0x4c, 0xbd, 0x6e, 0x8c, 0x94, 0x3d,
  0x9d, 0x74, 0x2f, 0x3d, 0x68, 0x31, 0x48, 0xbe, 0x6b, 0x3c, 0xa6, 0x3e,
  0xf1, 0xf9, 0x8b, 0x3e, 0x0d, 0x93, 0x86, 0x3d, 0x00, 0x19, 0x29, 0xbe,
  0xb8, 0x0b, 0xd6, 0x3e, 0x3e, 0x17, 0xab, 0x3c, 0xd8, 0x1e, 0x5d, 0x3e,
  0x79, 0xb3, 0x2e, 0x3f, 0x10, 0x28, 0x3f, 0xba, 0xbe, 0x09, 0xd7, 0xbd,
  0x10, 0x3b, 0x9f, 0x3d, 0xd0, 0xc9, 0x03, 0xbd, 0x3a, 0xeb, 0x0e, 0xbe,
  0x3a, 0x7f, 0xd2, 0xbd, 0x6b, 0xe6, 0xe4, 0x3d, 0x3f, 0x54, 0x30, 0xbd,
  0x80, 0xe5, 0x0b, 0x3f, 0xfa, 0x97, 0x15, 0x3e, 0x1b, 0x87, 0xc1, 0x3e,
  0xe4, 0xf9, 0x15, 0xbe, 0x42, 0x3d, 0x8b, 0x3f, 0x0d, 0x80, 0x57, 0xbe,
  0x1d, 0x15, 0x48, 0xbd, 0x1b, 0xd1, 0x21, 0x3f, 0xf5, 0x66, 0x44, 0xbe,
  0x82, 0x33, 0x3b, 0xbb, 0x62, 0xbb, 0xc5, 0xbc, 0xca, 0x4e, 0x00, 0xbe,
  0xcf, 0xa4, 0x56, 0x3c, 0x0f, 0x57, 0x95, 0x3c, 0x57, 0x74, 0x1c, 0x3e,
  0xc4, 0xcf, 0x34, 0xbe, 0xc4, 0x8c, 0xe6, 0x3e, 0x77, 0xf3, 0x80, 0x3e,
  0x0a, 0x06, 0x2e, 0x3e, 0xfd, 0xa4, 0x45, 0xbd, 0x79, 0x04, 0x72, 0x3f,
  0x8f, 0x95, 0x04, 0xbd, 0xef, 0xd5, 0x6e, 0xbc, 0x7f, 0xb7, 0x4d, 0x3f,
  0x61, 0xa7, 0xfd, 0xbd, 0xed, 0x25, 0x48, 0x3d, 0xca, 0x97, 0x01, 0xbe,
  0x6f, 0x6c, 0x32, 0xbd, 0xae, 0x6a, 0xc4, 0xbd, 0x38, 0x82, 0x87, 0x3e,
  0x30, 0xd3, 0xc2, 0xbd, 0x21, 0x9b, 0x6d, 0xbd, 0x3f, 0x0a, 0xd7, 0x3e,
  0xed, 0xef, 0x94, 0xbd, 0xab, 0x59, 0x38, 0x3e, 0x75, 0x1a, 0x9f, 0xbd,
  0xb9, 0x26, 0xab, 0x3e, 0xed, 0xb0, 0xa3, 0xbd, 0x6a, 0x03, 0xfa, 0xbd,
  0x7a, 0x5a, 0x3f, 0x3f, 0xa5, 0x3d, 0xbc, 0xbb, 0xb5, 0x16, 0xb8, 0xbd,
  0x01, 0xab, 0x96, 0xbc, 0xdc, 0x0d, 0x19, 0xbd, 0x19, 0xff, 0x17, 0xbd,
  0xc2, 0xa0, 0xd8, 0xbd, 0x02, 0xde, 0x0f, 0x3e, 0x13, 0xdf, 0xce, 0xbd,
  0x9f, 0x02, 0x17, 0x3f, 0xe3, 0xf9, 0x2e, 0x3d, 0x3e, 0xb4, 0x58, 0x3e,
  0x31, 0x68, 0x5a, 0xbe, 0xfe, 0x63, 0x35, 0x3f, 0x19, 0x39, 0x38, 0xbe,
  0x4b, 0x13, 0x27, 0xbe, 0x93, 0x95, 0x36, 0x3e, 0x71, 0x94, 0xef, 0xbd,
  0x4a, 0xe1, 0x05, 0xbd, 0x59, 0x6b, 0x09, 0xbe, 0x9b, 0x23, 0x23, 0xbe,
  0x01, 0xab, 0x8c, 0x3d, 0x1e, 0x25, 0xa6, 0x3c, 0x6b, 0x93, 0x16, 0xbd,
  0xc2, 0x82, 0x6f, 0xbe, 0x6a, 0xe0, 0x96, 0x3e, 0xc8, 0xd1, 0x3f, 0x3e,
  0xef, 0x71, 0x04, 0x3e, 0x55, 0x87, 0x53, 0xbe, 0xf6, 0x1f, 0x38, 0x3f,
  0x91, 0xf0, 0xd2, 0x3d, 0xc7, 0x45, 0x22, 0x3e, 0x26, 0xc1, 0x5a, 0x3d,
  0x6e, 0x36, 0xa5, 0xbe, 0x03, 0x3e, 0xf7, 0xbd, 0x0d, 0x47, 0x7b, 0xbd,
  0x95, 0x9b, 0x97, 0x3b, 0xcc, 0x73, 0x41, 0xbe, 0x80, 0xce, 0xa0, 0xbd,
  0x51, 0xdc, 0x70, 0x3e, 0x55, 0x58, 0x8f, 0xbd, 0xfc, 0xcc, 0x75, 0x3e,
  0x8b, 0x32, 0xc4, 0x3d, 0x5a, 0xd0, 0xe7, 0x3d, 0xb0, 0x6d, 0xa6, 0xbd,
  0xd3, 0xf9, 0x8d, 0x3e, 0xb3, 0x88, 0x4c, 0x3c, 0x61, 0x5e, 0x39, 0x3c,
  0xa5, 0xc7, 0x0c, 0xbd, 0xdf, 0x52, 0x20, 0x3e, 0xb9, 0xc4, 0x76, 0x3c,
  0x69, 0xd8, 0x76, 0xbd, 0xa0, 0xbc, 0x8a, 0x3c, 0xdf, 0xd6, 0x3d, 0xbe,
  0x68, 0xfa, 0x81, 0xbc, 0x5d, 0xf6, 0xd2, 0xbd, 0xfd, 0xc1, 0x9c, 0x3d,
  0xfd, 0xc7, 0x93, 0x3e, 0x73, 0x86, 0xe5, 0x3d, 0xaa, 0x8e, 0x19, 0xbe,
  0x69, 0xcd, 0x0d, 0x3e, 0x5e, 0x1d, 0x3a, 0x3e, 0x29, 0x49, 0x02, 0xbe,
  0x1a, 0xe7, 0xe2, 0x3b, 0xe2, 0xc3, 0x63, 0x3e, 0x4c, 0x49, 0x63, 0x3e,
  0x47, 0xb3, 0xc7, 0x3d, 0x2e, 0x2f, 0xe7, 0xbd, 0xb7, 0x0f, 0x8d, 0x3e,
  0x59, 0xcf, 0x08, 0xbe, 0x73, 0x70, 0x6a, 0xbe, 0xa7, 0xf7, 0x0b, 0xbd,
  0xbd, 0xbb, 0xce, 0x3d, 0x25, 0xbe, 0xf3, 0x3d, 0x21, 0x2c, 0x35, 0xbc,
  0x42, 0xc2, 0x24, 0x3d, 0x2b, 0xa7, 0x04, 0xbd, 0xab, 0x21, 0xb1, 0x3e,
  0x69, 0xad, 0x07, 0xbe, 0x17, 0x46, 0x88, 0xbd, 0xfd, 0x4b, 0xbe, 0x3d,
  0x67, 0xb3, 0xff, 0x3d, 0x51, 0x9c, 0x0b, 0xbc, 0xd2, 0xb0, 0x3d, 0xbe,
  0xfa, 0xfa, 0xb8, 0x3d, 0x5e, 0xe4, 0xb3, 0xbd, 0x65, 0xc9, 0x05, 0xbe,
  0xfe, 0x40, 0x09, 0xbe, 0x29, 0x86, 0x8c, 0x3d, 0x61, 0x9c, 0x74, 0x3e,
  0x2e, 0x94, 0x47, 0x3d, 0x7f, 0xd0, 0x85, 0x3d, 0xdd, 0x73, 0x40, 0x3d,
  0x55, 0x33, 0x86, 0x3e, 0xee, 0xfb, 0x87, 0xbe, 0x96, 0x39, 0x0d, 0xbd,
  0x8f, 0x2f, 0xca, 0x3d, 0x54, 0x04, 0xd2, 0x3d, 0xc1, 0xcd, 0x72, 0xbe,
  0x35, 0xd9, 0x55, 0x3d, 0x81, 0xd2, 0x87, 0x3d, 0xbd, 0xb9, 0xf4, 0xbc,
  0xfa, 0xdb, 0xa2, 0x3e, 0x92, 0x36, 0x88, 0xbe, 0xbf, 0xe2, 0x53, 0xbe,
  0x94, 0xd1, 0x7b, 0x3e, 0xaf, 0xa3, 0x88, 0xbd, 0x66, 0xbe, 0x2c, 0x3e,
  0xf6, 0xba, 0x0a, 0x3e, 0xf7, 0x9a, 0x13, 0x3e, 0xad, 0x5b, 0xd9, 0xbc,
  0x6d, 0x4d, 0x5e, 0x3d, 0x65, 0xde, 0xf7, 0x3d, 0x16, 0x7b, 0x49, 0x3e,
  0xc2, 0x66, 0xd6, 0x3d, 0x09, 0xaf, 0x88, 0xbd, 0x77, 0xc9, 0x61, 0x3d,
  0x20, 0x79, 0x67, 0xbc, 0x8f, 0x97, 0xfa, 0xbc, 0xb0, 0x8e, 0xbc, 0xbd,
  0x58, 0xb5, 0x61, 0xbd, 0x71, 0xd1, 0x8e, 0xbc, 0x0c, 0x0d, 0xfe, 0x3d,
  0x5b, 0x5d, 0xc9, 0x3d, 0x9c, 0xa4, 0x90, 0xbd, 0x18, 0xbb, 0x0a, 0x3e,
  0x6e, 0x4e, 0x0b, 0xbe, 0x24, 0x90, 0x8b, 0x3d, 0x0b, 0x6d, 0x03, 0x3b,
  0x24, 0xd1, 0x26, 0x3e, 0x16, 0x89, 0xa2, 0x3d, 0xce, 0xf3, 0xa0, 0xbd,
  0x35, 0xe6, 0x81, 0x3e, 0x71, 0x0c, 0xf5, 0x3b, 0xac, 0xa4, 0x94, 0xbd,
  0x10, 0x9b, 0x4e, 0xbe, 0x5b, 0x30, 0xbd, 0x3c, 0x95, 0xf7, 0xa4, 0x3e,
  0x03, 0x0b, 0x38, 0xbe, 0x8e, 0xf6, 0x7c, 0xbd, 0xda, 0x88, 0x87, 0x3e,
  0x39, 0xe9, 0x8e, 0x3e, 0x4e, 0x09, 0xd6, 0xbc, 0x97, 0xec, 0xd2, 0x3d,
  0xca, 0xd4, 0x02, 0xbe, 0xdb, 0x77, 0x3f, 0x3e, 0xcd, 0x32, 0x23, 0x3d,
  0x7e, 0x5f, 0x64, 0xbd, 0x7a, 0x7f, 0x9a, 0x3e, 0xd6, 0x10, 0x8a, 0xbd,
  0x1f, 0x37, 0xd6, 0xbc, 0x1d, 0xc1, 0x0e, 0xbe, 0xe0, 0x59, 0xe3, 0x3d,
  0x14, 0x8c, 0x3f, 0x3e, 0x09, 0x41, 0xcf, 0x3c, 0x6e, 0xaa, 0x82, 0x3e,
  0xc8, 0xf5, 0x7a, 0x3d, 0x19, 0x75, 0xd5, 0x3e, 0xb8, 0x31, 0x5b, 0xbd,
  0xc9, 0xf7, 0x82, 0xbe, 0x31, 0x4a, 0xa0, 0x3e, 0x0e, 0x1b, 0x48, 0x3c,
  0x5d, 0xa6, 0xb1, 0xbd, 0x5a, 0xbe, 0x63, 0x3d, 0xe3, 0x02, 0x0c, 0x3e,
  0xfc, 0x92, 0xb3, 0x3c, 0x8f, 0x81, 0x11, 0xbe, 0x3e, 0xe3, 0xda, 0xbd,
  0xc0, 0xb4, 0x39, 0xbe, 0x77, 0x5f, 0x46, 0x3e, 0x10, 0xd2, 0x56, 0xbe,
  0x1f, 0x1c, 0x3d, 0x3d, 0x9e, 0x86, 0x43, 0xbc, 0xe8, 0xa1, 0x6c, 0x3e,
  0x9e, 0x44, 0x8a, 0xbe, 0xd6, 0x49, 0x82, 0xbe, 0x85, 0xbe, 0x51, 0x3e,
  0x00, 0x51, 0xe9, 0x3c, 0xc8, 0x4e, 0x0d, 0xbe, 0xd9, 0xc1, 0x20, 0xbe,
  0xdd, 0xed, 0x07, 0x3e, 0x9c, 0x4c, 0x84, 0xbe, 0xcb, 0x17, 0x00, 0x3d,
  0xbf, 0xeb, 0xe8, 0x3c, 0x74, 0x0b, 0x75, 0xbe, 0xbc, 0x77, 0xb6, 0x3d,
  0x07, 0x64, 0xc4, 0xbd, 0xaa, 0xe4, 0x16, 0x3e, 0xa5, 0x27, 0x80, 0xbd,
  0x61, 0x86, 0x34, 0x3e, 0x8f, 0xb2, 0x87, 0xbd, 0x84, 0xaf, 0x4a, 0xbd,
  0x31, 0x76, 0xb7, 0x3e, 0xca, 0xb1, 0x24, 0x3e, 0xbb, 0x98, 0x0c, 0xbe,
  0x70, 0x44, 0x18, 0xbe, 0x41, 0x0c, 0xdd, 0x3c, 0x6e, 0x4d, 0xee, 0xbd,
  0xcf, 0x46, 0x0a, 0xbe, 0x2f, 0x1e, 0x3b, 0xbd, 0xbf, 0x8f, 0x6b, 0xbe,
  0x90, 0x34, 0x8d, 0x3e, 0xe5, 0x5b, 0xb6, 0xbd, 0x55, 0xb9, 0x6f, 0x3e,
  0xc7, 0x88, 0x0a, 0xbe, 0xac, 0x71, 0x5d, 0x3c, 0x37, 0x66, 0xc9, 0xbd,
  0xa8, 0x0e, 0x29, 0xbe, 0x54, 0x8a, 0x21, 0xbc, 0x5b, 0xf0, 0x3d, 0x3e,
  0x63, 0xbf, 0x25, 0xbe, 0x86, 0x77, 0x00, 0x3e, 0x86, 0x91, 0xfd, 0x3d,
  0xc0, 0xf7, 0x98, 0xbd, 0x98, 0xa2, 0x27, 0xbd, 0xdb, 0x2e, 0x03, 0x3d,
  0x20, 0xf7, 0x17, 0xbe, 0xb6, 0x39, 0xc9, 0x3e, 0x14, 0xc8, 0xb1, 0x3b,
  0x2d, 0x2a, 0x0b, 0x3e, 0xde, 0xf7, 0x36, 0xbe, 0x6b, 0x61, 0xd0, 0x3e,
  0xed, 0x5b, 0xe0, 0xbd, 0x1f, 0x18, 0xe4, 0x3d, 0x00, 0x42, 0x8b, 0x3e,
  0x20, 0x8f, 0x9b, 0x3c, 0xb7, 0x6e, 0xc0, 0xbd, 0x24, 0x22, 0x1b, 0xbe,
  0xd8, 0xcc, 0x67, 0xbe, 0xb8, 0x0d, 0x0f, 0xbd, 0x04, 0xbf, 0x34, 0xbe,
  0xd6, 0x56, 0x62, 0x3e, 0x3f, 0xfb, 0xa1, 0xbd, 0xc5, 0x20, 0x4d, 0x3e,
  0xc4, 0x95, 0xfe, 0xbd, 0xb2, 0x27, 0x99, 0x3c, 0xee, 0xf9, 0x1b, 0xbe,
  0x8d, 0xa4, 0x9b, 0x3e, 0xa8, 0x4e, 0x1e, 0xbe, 0x95, 0x4e, 0xd4, 0x3d,
  0x4e, 0xe9, 0x44, 0x3e, 0xad, 0x91, 0x0d, 0x3e, 0xef, 0xff, 0x32, 0x3d,
  0x5f, 0x2b, 0x31, 0xbe, 0x6b, 0x35, 0xb5, 0x3d, 0xfb, 0x88, 0x23, 0x3d,
  0xa3, 0xb4, 0x8b, 0x3d, 0x76, 0xf6, 0xa6, 0xbd, 0x83, 0xdc, 0x86, 0xbd,
  0xdf, 0x7e, 0x67, 0x3e, 0x8e, 0x07, 0x74, 0xbd, 0xad, 0xd7, 0x88, 0xbd,
  0x24, 0x6d, 0x60, 0xbc, 0xa9, 0xa7, 0xc7, 0x3e, 0x01, 0xc9, 0x95, 0x3c,
  0x03, 0x38, 0xef, 0x3d, 0x4a, 0x17, 0x22, 0x3e, 0xb1, 0x5a, 0x00, 0x3e,
  0x5f, 0x3e, 0x9b, 0xbd, 0x12, 0x30, 0x25, 0xbe, 0xf3, 0x96, 0xe1, 0xbc,
  0x70, 0x57, 0x4b, 0xbe, 0x5a, 0x51, 0xe4, 0xbd, 0x16, 0xd0, 0xab, 0x3d,
  0xc7, 0xdb, 0x57, 0xbe, 0xd9, 0xce, 0xd2, 0x3e, 0x61, 0xb5, 0xe2, 0x3b,
  0xd7, 0x90, 0xec, 0xbc, 0x1e, 0xde, 0xd4, 0x3b, 0x98, 0xdf, 0x41, 0x3e,
  0x95, 0x64, 0x45, 0xbe, 0xe3, 0xb5, 0x13, 0x3e, 0xf5, 0x6b, 0x39, 0x3f,
  0xb7, 0xf0, 0x16, 0xbd, 0xf2, 0xdb, 0xb3, 0x39, 0x0d, 0x59, 0x6b, 0x3d,
  0x8e, 0x6a, 0x13, 0x3d, 0x60, 0x78, 0xbd, 0x3d, 0xfa, 0xd0, 0x1b, 0xbe,
  0x3c, 0xdf, 0x05, 0x3d, 0x78, 0xf4, 0xbf, 0xbe, 0x35, 0x97, 0x4f, 0x3d,
  0xde, 0x48, 0x63, 0x3a, 0x7c, 0x7d, 0x0f, 0x3e, 0x60, 0x6f, 0x4f, 0xbe,
  0x2b, 0xce, 0x15, 0x3f, 0x70, 0xb4, 0xae, 0xbd, 0xdf, 0x79, 0xfd, 0x3d,
  0xd8, 0x87, 0xe3, 0x3e, 0x34, 0x25, 0x63, 0xbe, 0xac, 0x5e, 0x34, 0xbe,
  0xb3, 0xe7, 0xb7, 0xbd, 0x6e, 0x4d, 0x28, 0xbe, 0x94, 0x68, 0x14, 0xbe,
  0x01, 0x56, 0x2f, 0xbd, 0xf8, 0x4e, 0x60, 0x3e, 0xc6, 0x63, 0x2e, 0xbe,
  0x4d, 0x6b, 0x9e, 0x3e, 0x8b, 0x99, 0x02, 0xbe, 0xf8, 0x2d, 0x40, 0x3e,
  0xa7, 0x22, 0x9e, 0xbc, 0x74, 0x12, 0x0a, 0x3f, 0x8b, 0xcc, 0x8b, 0x3d,
  0x41, 0x35, 0x33, 0x3d, 0xc2, 0x50, 0x40, 0x3f, 0x97, 0x28, 0x6a, 0xbe,
  0xae, 0xf9, 0x0e, 0x3e, 0xf5, 0x8a, 0xaa, 0xbd, 0xda, 0x50, 0x4e, 0xbe,
  0xde, 0xae, 0x24, 0xbe, 0x43, 0x33, 0x85, 0x3d, 0x14, 0xad, 0x39, 0x3c,
  0x97, 0xe2, 0xdb, 0xbe, 0x9b, 0xce, 0x50, 0x3d, 0x25, 0xe3, 0x05, 0xbe,
  0x69, 0x2e, 0x73, 0x3e, 0x5c, 0x6f, 0x00, 0xbe, 0xf5, 0x53, 0x19, 0x3f,
  0x42, 0xc6, 0xe8, 0xbd, 0x0d, 0x57, 0xb5, 0xbd, 0x73, 0x41, 0x61, 0x3f,
  0x73, 0x66, 0x2a, 0xbe, 0x22, 0x87, 0x93, 0xbd, 0x55, 0xe4, 0x2e, 0x3e,
  0x8d, 0xfe, 0xcb, 0x3d, 0x1b, 0x08, 0x9d, 0x3c, 0xee, 0x83, 0x1c, 0x3c,
  0x3d, 0xa4, 0x1a, 0x3d, 0x80, 0x76, 0x83, 0xbe, 0xe0, 0x79, 0x65, 0x3e,
  0x9e, 0xdf, 0xd2, 0xbc, 0x92, 0x7c, 0x0b, 0x3e, 0xf5, 0xaa, 0xfa, 0xbd,
  0x94, 0x04, 0xec, 0x3e, 0xc1, 0xc9, 0xa4, 0xbd, 0xbe, 0x5d, 0x2d, 0x3d,
  0x96, 0xa6, 0xbc, 0x3e, 0xfb, 0x2d, 0x25, 0xbe, 0x35, 0x13, 0x91, 0xbd,
  0x5f, 0x62, 0x90, 0xbd, 0x97, 0x01, 0xf6, 0x3b, 0x2d, 0x70, 0x45, 0xbe,
  0x3a, 0xd5, 0x88, 0xbd, 0x21, 0xa3, 0x2a, 0x3e, 0x3e, 0x0b, 0x76, 0xbe,
  0x64, 0xcf, 0x73, 0x3e, 0xb3, 0x57, 0x28, 0xbe, 0x90, 0x01, 0x37, 0x3e,
  0xf6, 0x78, 0x0c, 0xbe, 0x9f, 0xc8, 0x73, 0x3f, 0x82, 0x16, 0xa6, 0xbd,
  0x69, 0x96, 0x6c, 0xbe, 0x24, 0x74, 0x96, 0x3e, 0x61, 0x0e, 0x69, 0xbe,
  0x28, 0xc8, 0x7f, 0xbe, 0x27, 0x39, 0x96, 0x3d, 0x74, 0x06, 0x02, 0xbe,
  0xd4, 0x04, 0xd6, 0xbd, 0x3a, 0x0d, 0xba, 0x3d, 0xe0, 0x92, 0xc1, 0x3d,
  0x43, 0x4d, 0x52, 0xbe, 0x34, 0xc3, 0x52, 0x3e, 0x41, 0x6f, 0xa0, 0xbc,
  0x1a, 0x70, 0xb8, 0xbc, 0xf6, 0x6f, 0x90, 0xbe, 0x52, 0x7f, 0xad, 0x3e,
  0x59, 0xc2, 0x87, 0xbe, 0x22, 0x2b, 0x00, 0x3e, 0xf3, 0xd8, 0xb0, 0x3d,
  0x65, 0xcc, 0x97, 0xbe, 0x3b, 0x35, 0x9f, 0x3d, 0xf3, 0x9c, 0x33, 0xbe,
  0xe4, 0xb0, 0x76, 0xbe, 0x86, 0x54, 0x6a, 0xbe, 0x38, 0x2d, 0x43, 0x3e,
  0xb9, 0x29, 0x9e, 0x3b, 0x82, 0x52, 0x82, 0xbe, 0x43, 0x44, 0x46, 0xbe,
  0x0a, 0x3c, 0x43, 0x3e, 0xb5, 0xe0, 0x7a, 0xbd, 0xe2, 0x4d, 0x8f, 0xbd,
  0xee, 0x40, 0x5e, 0xbd, 0x73, 0x57, 0x84, 0x3e, 0x79, 0xa5, 0x17, 0xbe,
  0xee, 0x56, 0xb5, 0x3b, 0xc1, 0x1f, 0x82, 0xbe, 0xa1, 0xb8, 0x37, 0xbe,
  0xdf, 0x9a, 0x83, 0xbd, 0xb6, 0x4b, 0xd4, 0xbd, 0xfd, 0x23, 0x1a, 0x3e,
  0xb6, 0x56, 0x6f, 0x3e, 0x08, 0x7d, 0xa9, 0xbc, 0x09, 0xbb, 0xe4, 0xbd,
  0xaa, 0x3b, 0x00, 0x3e, 0xb0, 0xb5, 0x64, 0xbe, 0x80, 0x54, 0xac, 0x3c,
  0x5e, 0xea, 0xc2, 0xbd, 0x4e, 0xde, 0x2a, 0xbc, 0xcb, 0xe6, 0x0c, 0x3e,
  0xc8, 0x42, 0x3d, 0xbe, 0x75, 0x2e, 0x3d, 0xbd, 0xa6, 0xd1, 0x8f, 0x3d,
  0xa4, 0x4b, 0x56, 0x3c, 0x2e, 0x32, 0xa3, 0x3d, 0x90, 0x46, 0x00, 0xbe,
  0xdb, 0x2d, 0xe2, 0xbd, 0x7a, 0x16, 0x76, 0x3d, 0x0a, 0x55, 0x62, 0xbe,
  0xdd, 0x45, 0x0c, 0xbe, 0xba, 0xb0, 0xff, 0xbd, 0xd0, 0xe7, 0x2d, 0xbe,
  0x20, 0x35, 0x28, 0x3e, 0x6c, 0x2b, 0xf8, 0x3c, 0x2b, 0x82, 0x1e, 0xbe,
  0x69, 0x3c, 0xe5, 0x3c, 0xa1, 0x99, 0x90, 0x3d, 0x71, 0xd3, 0x44, 0x3e,
  0x70, 0x42, 0x7f, 0x3d, 0x22, 0x9a, 0x9c, 0xbd, 0xd3, 0x35, 0x89, 0x3d,
  0xa1, 0x59, 0x9b, 0xbd, 0x86, 0x46, 0x86, 0x3d, 0xd1, 0x82, 0x70, 0x3c,
  0x1b, 0xbf, 0x34, 0xbd, 0x90, 0x4e, 0x22, 0x3e, 0x95, 0x97, 0x3f, 0x3e,
  0x33, 0x6e, 0x22, 0xbe, 0x91, 0x4a, 0x52, 0xbe, 0x46, 0x72, 0xf9, 0xbc,
  0xbd, 0x0a, 0x49, 0x3e, 0x8f, 0x02, 0x35, 0xbe, 0xac, 0xdd, 0xfd, 0xbd,
  0x27, 0x14, 0x2a, 0x3e, 0xce, 0xcb, 0x22, 0x3e, 0xd5, 0x60, 0xd7, 0x3d,
  0xa0, 0x9a, 0xa4, 0x3d, 0xe1, 0x4a, 0xc3, 0xbc, 0xdf, 0x9b, 0x43, 0xbe,
  0x06, 0x01, 0x7c, 0x3e, 0x33, 0x75, 0xfa, 0xbd, 0x04, 0x5f, 0xf3, 0x3d,
  0x49, 0x84, 0xfb, 0xbd, 0xd7, 0xa7, 0xdf, 0x3d, 0x1e, 0x6d, 0x8b, 0x3c,
  0x44, 0x90, 0xd0, 0xbc, 0x68, 0xa4, 0xfa, 0x3d, 0x61, 0xc1, 0xbc, 0xbd,
  0xa6, 0x70, 0xc4, 0x3d, 0xfe, 0x1f, 0x16, 0x3e, 0xca, 0x00, 0xe6, 0xbd,
  0xde, 0x30, 0x75, 0xbe, 0xd7, 0x39, 0x6a, 0xbb, 0xdd, 0x83, 0x60, 0xbe,
  0x1b, 0xea, 0x40, 0xbe, 0xde, 0x33, 0x68, 0xbc, 0x31, 0x78, 0x46, 0xbe,
  0x4c, 0xf4, 0x01, 0xbe, 0x24, 0xdd, 0x08, 0xbe, 0x08, 0x5e, 0x9f, 0xbc,
  0x4a, 0x1c, 0x08, 0xbe, 0xfc, 0x60, 0xf2, 0x3c, 0xfa, 0x71, 0x42, 0xbe,
  0xcb, 0x5b, 0x9d, 0xbd, 0x8d, 0x50, 0xfc, 0xbd, 0x69, 0x24, 0x2c, 0xbe,
  0xb8, 0x76, 0x57, 0x3d, 0xf7, 0x5c, 0x5d, 0x3d, 0x83, 0x5f, 0x3d, 0xbd,
  0xbf, 0xe8, 0x11, 0x3e, 0x8d, 0x88, 0x56, 0xbb, 0xa6, 0xe6, 0x07, 0xbe,
  0x48, 0x6d, 0x94, 0xbe, 0xfe, 0x62, 0x32, 0xbe, 0xe6, 0x28, 0xfd, 0x3d,
  0x87, 0xab, 0x0b, 0x3e, 0xb5, 0xd0, 0x30, 0xbe, 0xff, 0x20, 0x01, 0x3d,
  0x6f, 0x40, 0x5b, 0x3d, 0x0d, 0x74, 0xa9, 0x3d, 0x1b, 0x04, 0x1a, 0x3e,
  0xc9, 0xe9, 0xa9, 0x3d, 0xa6, 0xb9, 0x5d, 0xbd, 0x6a, 0x43, 0x16, 0x3d,
  0xd9, 0x68, 0x34, 0x3e, 0x92, 0x0d, 0x37, 0xbe, 0x2a, 0x98, 0x2f, 0x3d,
  0xbb, 0x3d, 0xb7, 0x3e, 0x47, 0xc5, 0xad, 0xbd, 0xc0, 0x13, 0xef, 0xbd,
  0x4a, 0xfe, 0xff, 0xff, 0x10, 0x00, 0x00, 0x00, 0x05, 0x00, 0x00, 0x00,
  0x14, 0x00, 0x00, 0x00, 0x2c, 0x00, 0x00, 0x00, 0x02, 0x00, 0x00, 0x00,
  0x10, 0x00, 0x00, 0x00, 0x70, 0x00, 0x00, 0x00, 0x17, 0x00, 0x00, 0x00,
  0x73, 0x65, 0x71, 0x75, 0x65, 0x6e, 0x74, 0x69, 0x61, 0x6c, 0x2f, 0x64,
  0x65, 0x6e, 0x73, 0x65, 0x2f, 0x4d, 0x61, 0x74, 0x4d, 0x75, 0x6c, 0x00,
  0x38, 0xfe, 0xff, 0xff, 0x2e, 0xff, 0xff, 0xff, 0x04, 0x00, 0x00, 0x00,
  0x08, 0x00, 0x00, 0x00, 0xff, 0xff, 0xff, 0xff, 0x70, 0x00, 0x00, 0x00,
  0x00, 0x00, 0x0e, 0x00, 0x18, 0x00, 0x08, 0x00, 0x07, 0x00, 0x0c, 0x00,
  0x10, 0x00, 0x14, 0x00, 0x0e, 0x00, 0x00, 0x00, 0x00, 0x00, 0x00, 0x02,
  0x10, 0x00, 0x00, 0x00, 0x04, 0x00, 0x00, 0x00, 0x10, 0x00, 0x00, 0x00,
  0x2c, 0x00, 0x00, 0x00, 0x01, 0x00, 0x00, 0x00, 0x02, 0x00, 0x00, 0x00,
  0x18, 0x00, 0x00, 0x00, 0x73, 0x65, 0x71, 0x75, 0x65, 0x6e, 0x74, 0x69,
  0x61, 0x6c, 0x2f, 0x66, 0x6c, 0x61, 0x74, 0x74, 0x65, 0x6e, 0x2f, 0x43,
  0x6f, 0x6e, 0x73, 0x74, 0x00, 0x00, 0x00, 0x00, 0xa0, 0xfe, 0xff, 0xff,
  0x96, 0xff, 0xff, 0xff, 0x04, 0x00, 0x00, 0x00, 0x0c, 0x00, 0x00, 0x00,
  0xaf, 0xc9, 0xc4, 0xbf, 0xd5, 0xd8, 0x86, 0xbe, 0x5f, 0x0f, 0x22, 0x3f,
  0x0a, 0xff, 0xff, 0xff, 0x10, 0x00, 0x00, 0x00, 0x03, 0x00, 0x00, 0x00,
  0x10, 0x00, 0x00, 0x00, 0x3c, 0x00, 0x00, 0x00, 0x01, 0x00, 0x00, 0x00,
  0x03, 0x00, 0x00, 0x00, 0x29, 0x00, 0x00, 0x00, 0x73, 0x65, 0x71, 0x75,
  0x65, 0x6e, 0x74, 0x69, 0x61, 0x6c, 0x2f, 0x64, 0x65, 0x6e, 0x73, 0x65,
  0x5f, 0x31, 0x2f, 0x42, 0x69, 0x61, 0x73, 0x41, 0x64, 0x64, 0x2f, 0x52,
  0x65, 0x61, 0x64, 0x56, 0x61, 0x72, 0x69, 0x61, 0x62, 0x6c, 0x65, 0x4f,
  0x70, 0x00, 0x00, 0x00, 0x60, 0xff, 0xff, 0xff, 0x00, 0x00, 0x06, 0x00,
  0x08, 0x00, 0x04, 0x00, 0x06, 0x00, 0x00, 0x00, 0x04, 0x00, 0x00, 0x00,
  0x40, 0x00, 0x00, 0x00, 0xdc, 0xda, 0x9e, 0x3e, 0xbe, 0x5f, 0x0f, 0x3f,
  0x5d, 0xaa, 0x83, 0x3e, 0xc2, 0x2a, 0xee, 0xbd, 0x11, 0x4e, 0xa0, 0xbd,
  0x4c, 0x3b, 0x49, 0xbd, 0xb8, 0x86, 0xe0, 0xbd, 0x8d, 0x7f, 0x74, 0xbe,
  0x01, 0x2e, 0x82, 0xbe, 0x48, 0xca, 0x1b, 0xbe, 0xc3, 0x37, 0x63, 0x3f,
  0x89, 0x0f, 0x27, 0x3f, 0xa0, 0x19, 0x1e, 0xbe, 0x9c, 0xdc, 0x3a, 0xbd,
  0x37, 0x53, 0x2a, 0x3f, 0x2c, 0x24, 0xa6, 0xbd, 0xae, 0xff, 0xff, 0xff,
  0x10, 0x00, 0x00, 0x00, 0x02, 0x00, 0x00, 0x00, 0x10, 0x00, 0x00, 0x00,
  0x3c, 0x00, 0x00, 0x00, 0x01, 0x00, 0x00, 0x00, 0x10, 0x00, 0x00, 0x00,
  0x27, 0x00, 0x00, 0x00, 0x73, 0x65, 0x71, 0x75, 0x65, 0x6e, 0x74, 0x69,
  0x61, 0x6c, 0x2f, 0x64, 0x65, 0x6e, 0x73, 0x65, 0x2f, 0x42, 0x69, 0x61,
  0x73, 0x41, 0x64, 0x64, 0x2f, 0x52, 0x65, 0x61, 0x64, 0x56, 0x61, 0x72,
  0x69, 0x61, 0x62, 0x6c, 0x65, 0x4f, 0x70, 0x00, 0x04, 0x00, 0x06, 0x00,
  0x04, 0x00, 0x00, 0x00, 0x00, 0x00, 0x0e, 0x00, 0x14, 0x00, 0x04, 0x00,
  0x00, 0x00, 0x08, 0x00, 0x0c, 0x00, 0x10, 0x00, 0x0e, 0x00, 0x00, 0x00,
  0x10, 0x00, 0x00, 0x00, 0x01, 0x00, 0x00, 0x00, 0x1c, 0x00, 0x00, 0x00,
  0x2c, 0x00, 0x00, 0x00, 0x04, 0x00, 0x00, 0x00, 0x01, 0x00, 0x00, 0x00,
  0x40, 0x00, 0x00, 0x00, 0x03, 0x00, 0x00, 0x00, 0x01, 0x00, 0x00, 0x00,
  0x0c, 0x00, 0x00, 0x00, 0x63, 0x6f, 0x6e, 0x76, 0x32, 0x64, 0x5f, 0x69,
  0x6e, 0x70, 0x75, 0x74, 0x00, 0x00, 0x00, 0x00, 0xfc, 0xff, 0xff, 0xff,
  0x04, 0x00, 0x04, 0x00, 0x04, 0x00, 0x00, 0x00
};

unsigned int model_tflite_len = 11708;// Fill the int in `src/model.cc` here